const unsigned char mnist_tflite2[] = {
  0x1C, 0x00, 0x00, 0x00, 0x54, 0x46, 0x4C, 0x33, 0x14, 0x00,
  0x20, 0x00, 0x1C, 0x00, 0x18, 0x00, 0x14, 0x00, 0x10, 0x00,
  0x0C, 0x00, 0x00, 0x00, 0x08, 0x00, 0x04, 0x00, 0x14, 0x00,
  0x00, 0x00, 0x1C, 0x00, 0x00, 0x00, 0x90, 0x00, 0x00, 0x00,
  0xE8, 0x00, 0x00, 0x00, 0xCC, 0x33, 0x00, 0x00, 0xDC, 0x33,
  0x00, 0x00, 0x14, 0x39, 0x00, 0x00, 0x03, 0x00, 0x00, 0x00,
  0x01, 0x00, 0x00, 0x00, 0x10, 0x00, 0x00, 0x00, 0x00, 0x00,
  0x0A, 0x00, 0x10, 0x00, 0x0C, 0x00, 0x08, 0x00, 0x04, 0x00,
  0x0A, 0x00, 0x00, 0x00, 0x0C, 0x00, 0x00, 0x00, 0x1C, 0x00,
  0x00, 0x00, 0x34, 0x00, 0x00, 0x00, 0x0F, 0x00, 0x00, 0x00,
  0x73, 0x65, 0x72, 0x76, 0x69, 0x6E, 0x67, 0x5F, 0x64, 0x65,
  0x66, 0x61, 0x75, 0x6C, 0x74, 0x00, 0x01, 0x00, 0x00, 0x00,
  0x04, 0x00, 0x00, 0x00, 0x98, 0xFF, 0xFF, 0xFF, 0x09, 0x00,
  0x00, 0x00, 0x04, 0x00, 0x00, 0x00, 0x02, 0x00, 0x00, 0x00,
  0x73, 0x6D, 0x00, 0x00, 0x01, 0x00, 0x00, 0x00, 0x04, 0x00,
  0x00, 0x00, 0x22, 0xCC, 0xFF, 0xFF, 0x04, 0x00, 0x00, 0x00,
  0x0D, 0x00, 0x00, 0x00, 0x66, 0x6C, 0x61, 0x74, 0x74, 0x65,
  0x6E, 0x5F, 0x69, 0x6E, 0x70, 0x75, 0x74, 0x00, 0x00, 0x00,
  0x02, 0x00, 0x00, 0x00, 0x34, 0x00, 0x00, 0x00, 0x04, 0x00,
  0x00, 0x00, 0xDC, 0xFF, 0xFF, 0xFF, 0x0C, 0x00, 0x00, 0x00,
  0x04, 0x00, 0x00, 0x00, 0x13, 0x00, 0x00, 0x00, 0x43, 0x4F,
  0x4E, 0x56, 0x45, 0x52, 0x53, 0x49, 0x4F, 0x4E, 0x5F, 0x4D,
  0x45, 0x54, 0x41, 0x44, 0x41, 0x54, 0x41, 0x00, 0x08, 0x00,
  0x0C, 0x00, 0x08, 0x00, 0x04, 0x00, 0x08, 0x00, 0x00, 0x00,
  0x0B, 0x00, 0x00, 0x00, 0x04, 0x00, 0x00, 0x00, 0x13, 0x00,
  0x00, 0x00, 0x6D, 0x69, 0x6E, 0x5F, 0x72, 0x75, 0x6E, 0x74,
  0x69, 0x6D, 0x65, 0x5F, 0x76, 0x65, 0x72, 0x73, 0x69, 0x6F,
  0x6E, 0x00, 0x0D, 0x00, 0x00, 0x00, 0xE0, 0x32, 0x00, 0x00,
  0xD8, 0x32, 0x00, 0x00, 0xA0, 0x32, 0x00, 0x00, 0x80, 0x32,
  0x00, 0x00, 0x68, 0x32, 0x00, 0x00, 0x58, 0x01, 0x00, 0x00,
  0xA8, 0x00, 0x00, 0x00, 0xA0, 0x00, 0x00, 0x00, 0x98, 0x00,
  0x00, 0x00, 0x90, 0x00, 0x00, 0x00, 0x88, 0x00, 0x00, 0x00,
  0x68, 0x00, 0x00, 0x00, 0x04, 0x00, 0x00, 0x00, 0xD2, 0xCC,
  0xFF, 0xFF, 0x04, 0x00, 0x00, 0x00, 0x54, 0x00, 0x00, 0x00,
  0x0C, 0x00, 0x00, 0x00, 0x08, 0x00, 0x0E, 0x00, 0x08, 0x00,
  0x04, 0x00, 0x08, 0x00, 0x00, 0x00, 0x10, 0x00, 0x00, 0x00,
  0x24, 0x00, 0x00, 0x00, 0x00, 0x00, 0x06, 0x00, 0x08, 0x00,
  0x04, 0x00, 0x06, 0x00, 0x00, 0x00, 0x04, 0x00, 0x00, 0x00,
  0x00, 0x00, 0x00, 0x00, 0x00, 0x00, 0x0A, 0x00, 0x10, 0x00,
  0x0C, 0x00, 0x08, 0x00, 0x04, 0x00, 0x0A, 0x00, 0x00, 0x00,
  0x02, 0x00, 0x00, 0x00, 0x02, 0x00, 0x00, 0x00, 0x04, 0x00,
  0x00, 0x00, 0x06, 0x00, 0x00, 0x00, 0x32, 0x2E, 0x31, 0x33,
  0x2E, 0x31, 0x00, 0x00, 0x32, 0xCD, 0xFF, 0xFF, 0x04, 0x00,
  0x00, 0x00, 0x10, 0x00, 0x00, 0x00, 0x31, 0x2E, 0x35, 0x2E,
  0x30, 0x00, 0x00, 0x00, 0x00, 0x00, 0x00, 0x00, 0x00, 0x00,
  0x00, 0x00, 0xBC, 0xC8, 0xFF, 0xFF, 0xC0, 0xC8, 0xFF, 0xFF,
  0xC4, 0xC8, 0xFF, 0xFF, 0xC8, 0xC8, 0xFF, 0xFF, 0x5E, 0xCD,
  0xFF, 0xFF, 0x04, 0x00, 0x00, 0x00, 0xA0, 0x00, 0x00, 0x00,
  0x06, 0x46, 0x08, 0xBD, 0x9D, 0xAF, 0xBD, 0xBE, 0x4C, 0xA2,
  0xAE, 0xBF, 0x8D, 0x72, 0x46, 0x3F, 0x89, 0x33, 0xF2, 0xBE,
  0x4F, 0x4F, 0xDB, 0x3D, 0x8C, 0xBC, 0xEB, 0x3E, 0x50, 0xAD,
  0xB9, 0xBF, 0x51, 0x1A, 0xAA, 0xBC, 0x4A, 0xC5, 0x42, 0x3F,
  0xF0, 0xF5, 0x0A, 0xBF, 0x70, 0x7A, 0x89, 0xBF, 0xEB, 0x62,
  0xD6, 0x3E, 0x81, 0x5A, 0x29, 0xBE, 0x3F, 0x7F, 0x5A, 0xBE,
  0x60, 0x8D, 0x1B, 0xBD, 0x99, 0x2C, 0x91, 0xBF, 0xC8, 0x87,
  0xA1, 0xBF, 0xB5, 0xC9, 0x3D, 0x3E, 0x5F, 0x69, 0x52, 0x3E,
  0x66, 0x5D, 0x07, 0xBF, 0xA2, 0xFC, 0xA2, 0x3D, 0x65, 0x3C,
  0x9A, 0xBE, 0xE3, 0x85, 0xF8, 0x3E, 0x3C, 0xF1, 0xBA, 0xBF,
  0x96, 0x2E, 0x30, 0x3F, 0xA4, 0xD3, 0x5E, 0xBF, 0x45, 0x4F,
  0x07, 0x3E, 0x54, 0x7C, 0x5F, 0x3F, 0xED, 0x27, 0xC4, 0xBF,
  0x8F, 0xA0, 0x03, 0x3C, 0x1E, 0x97, 0x1E, 0xBF, 0x80, 0xF1,
  0xEA, 0xBE, 0xDE, 0xC6, 0x92, 0x3E, 0xD8, 0x40, 0x0C, 0x3F,
  0x59, 0xB1, 0x90, 0xBE, 0xD7, 0xA4, 0x85, 0x3E, 0x4D, 0xE2,
  0xB7, 0xBF, 0x95, 0xD9, 0xC3, 0x3E, 0xED, 0x22, 0x19, 0xBE,
  0x0A, 0xCE, 0xFF, 0xFF, 0x04, 0x00, 0x00, 0x00, 0x00, 0x31,
  0x00, 0x00, 0xD0, 0xED, 0x14, 0x3D, 0x20, 0x36, 0xAE, 0x3D,
  0xC0, 0xF7, 0x71, 0x3B, 0x84, 0x9E, 0x52, 0x3D, 0x42, 0x7F,
  0x95, 0xBD, 0x2E, 0xFC, 0x3B, 0xBD, 0x00, 0x6E, 0x02, 0x3C,
  0x60, 0x98, 0x89, 0xBD, 0x94, 0x45, 0x85, 0xBC, 0x46, 0x2B,
  0x0B, 0x3D, 0xF8, 0x60, 0xB4, 0x3C, 0x94, 0x88, 0x60, 0x3D,
  0x40, 0x00, 0x84, 0xBB, 0xD9, 0xA4, 0xAD, 0xBD, 0x12, 0xE3,
  0x94, 0xBD, 0x70, 0xD6, 0xF7, 0xBC, 0x08, 0xED, 0x23, 0x3D,
  0xDC, 0x45, 0x30, 0x3D, 0x20, 0xD9, 0xB9, 0x3C, 0xB0, 0xFF,
  0x48, 0x3C, 0x60, 0xF1, 0x60, 0xBD, 0x04, 0x71, 0x60, 0xBD,
  0x78, 0x1D, 0x95, 0x3D, 0xC0, 0x2A, 0xF2, 0x3C, 0x30, 0xDB,
  0x8E, 0xBC, 0x3E, 0xD2, 0x58, 0xBD, 0x44, 0x72, 0x9D, 0xBD,
  0xCE, 0x9E, 0xD7, 0xBC, 0xC0, 0x1B, 0x4E, 0xBB, 0x00, 0x00,
  0x96, 0x36, 0x4C, 0x49, 0x1B, 0x3F, 0x87, 0x0B, 0x23, 0x3E,
  0x54, 0xC2, 0x87, 0xBE, 0x3E, 0xD2, 0x88, 0xBE, 0x26, 0x22,
  0x42, 0xBD, 0x3C, 0xE5, 0x38, 0xBE, 0xDD, 0x93, 0x50, 0x3E,
  0xA2, 0xBE, 0x80, 0xBE, 0x21, 0xAE, 0x1A, 0xBC, 0xF9, 0x59,
  0xD8, 0x3E, 0xD9, 0xAE, 0x1A, 0x3F, 0x2A, 0x14, 0x68, 0x3F,
  0x8F, 0xE8, 0x1D, 0x3F, 0xA5, 0xB1, 0x05, 0x3F, 0xD9, 0x63,
  0x02, 0x3F, 0x5C, 0xC4, 0x93, 0x3D, 0x83, 0xFC, 0xA7, 0x3E,
  0x76, 0x5D, 0xB9, 0x3E, 0x7A, 0xAB, 0xC4, 0x3E, 0x82, 0x52,
  0x89, 0x3E, 0x82, 0x2B, 0x5E, 0x3F, 0xF9, 0xAF, 0x4E, 0x3E,
  0x63, 0xC0, 0xBB, 0xBE, 0x07, 0x39, 0x17, 0xBF, 0x9F, 0xDB,
  0x4A, 0xBE, 0x9E, 0x8D, 0x82, 0x3D, 0xB8, 0x19, 0x61, 0xBC,
  0x6B, 0x05, 0xB5, 0x3E, 0xDA, 0xBB, 0xE1, 0x3E, 0x68, 0xCD,
  0x1E, 0xBD, 0xC8, 0xB9, 0xB5, 0xBD, 0x69, 0x05, 0xD1, 0x3E,
  0xD0, 0x14, 0x61, 0x3E, 0xE5, 0xB9, 0x7A, 0x3E, 0x8B, 0x7A,
  0xAC, 0x3E, 0xC3, 0x6F, 0x8F, 0x3E, 0x3F, 0xCF, 0xC7, 0x3E,
  0x08, 0x19, 0x78, 0x3E, 0xEF, 0x8C, 0x8C, 0x3E, 0x74, 0x49,
  0xA0, 0x3E, 0x86, 0xFC, 0x5C, 0x3E, 0x82, 0x3D, 0x87, 0x3E,
  0xC6, 0xF0, 0xA6, 0x3E, 0xE1, 0xBE, 0x88, 0x3E, 0x11, 0x70,
  0xF7, 0x3D, 0x91, 0x0C, 0x20, 0x3E, 0x8C, 0xFD, 0x3E, 0x3E,
  0x6A, 0xA0, 0x24, 0x3E, 0x64, 0xD0, 0x39, 0x3E, 0x2B, 0xFD,
  0x7A, 0x3E, 0xE3, 0xED, 0x2C, 0xBE, 0x3B, 0x59, 0x27, 0xBD,
  0x19, 0x91, 0x9C, 0xBE, 0xF0, 0x27, 0xC6, 0xBC, 0xB8, 0x57,
  0x90, 0xBD, 0x91, 0x97, 0x0C, 0x3D, 0x15, 0x76, 0xBE, 0x3E,
  0x94, 0x19, 0x97, 0x3E, 0x9B, 0x8D, 0xC4, 0x3D, 0xF2, 0xB4,
  0x95, 0x3E, 0x02, 0x20, 0xA4, 0x3E, 0x6D, 0x90, 0xC8, 0x3E,
  0x3B, 0x0D, 0xE7, 0x3E, 0x45, 0x22, 0xFC, 0x3E, 0x3F, 0x37,
  0xAF, 0x3E, 0xEC, 0xDF, 0xA8, 0x3E, 0xE6, 0x1A, 0x00, 0x3F,
  0xC5, 0x31, 0xCF, 0x3E, 0x74, 0x02, 0xE4, 0x3E, 0xD0, 0x98,
  0x7A, 0x3E, 0xC9, 0xA8, 0x9C, 0x3E, 0x9C, 0x8D, 0x8C, 0x3E,
  0xA0, 0xCC, 0x7D, 0x3E, 0x83, 0xB8, 0x27, 0x3E, 0x8C, 0xF7,
  0xE8, 0x3D, 0x47, 0x83, 0xB6, 0x3D, 0x3D, 0x6A, 0xAC, 0x3C,
  0x9E, 0x11, 0x0D, 0x3E, 0x4E, 0x78, 0x6E, 0xBE, 0xC8, 0x0D,
  0xBE, 0x3C, 0xEA, 0x2E, 0x95, 0x3E, 0x5E, 0x31, 0xA2, 0x3D,
  0xE6, 0xCA, 0x2E, 0x3E, 0x40, 0xC9, 0xBF, 0x3C, 0x83, 0xEB,
  0x1D, 0x3E, 0xB9, 0xEB, 0xCB, 0x3E, 0xB3, 0xD9, 0x29, 0x3E,
  0x3B, 0x7F, 0x65, 0x3E, 0x70, 0x8D, 0x9E, 0x3E, 0x42, 0x5D,
  0x81, 0x3E, 0x1C, 0x63, 0x84, 0x3E, 0x2B, 0xA3, 0xB3, 0x3E,
  0x53, 0x5B, 0xA8, 0x3E, 0xBA, 0x96, 0xC5, 0x3E, 0x1A, 0xB9,
  0xE8, 0x3E, 0x75, 0x6A, 0x0F, 0x3F, 0xD8, 0xE8, 0x10, 0x3F,
  0x21, 0x4A, 0xF6, 0x3E, 0x83, 0x1F, 0xE0, 0x3E, 0x6A, 0x2F,
  0x99, 0x3E, 0x07, 0x4B, 0x92, 0x3E, 0x52, 0x9C, 0xEB, 0x3D,
  0x61, 0xF2, 0x83, 0x3D, 0x7F, 0x05, 0x4A, 0x3E, 0xCF, 0xE3,
  0xDB, 0x3D, 0x5E, 0x67, 0x82, 0x3B, 0xB2, 0xA8, 0x09, 0xBE,
  0x57, 0x02, 0xBD, 0x3C, 0x9D, 0x63, 0x93, 0xBD, 0x28, 0xA2,
  0x4D, 0x3C, 0xC0, 0xCF, 0x98, 0x3E, 0x08, 0x26, 0xF5, 0x3E,
  0x32, 0x38, 0xE0, 0x3E, 0x48, 0xB4, 0xDF, 0x3E, 0x3B, 0x9F,
  0x4A, 0x3E, 0x80, 0x11, 0xC4, 0x3E, 0x21, 0x18, 0xA4, 0x3E,
  0xA9, 0xA2, 0x0D, 0x3E, 0x28, 0xC0, 0xB0, 0x3E, 0x08, 0x11,
  0x78, 0x3E, 0x31, 0x27, 0x7D, 0x3E, 0xBD, 0x9F, 0xA6, 0x3E,
  0x2E, 0x0B, 0x86, 0x3E, 0x42, 0xD2, 0xCB, 0x3E, 0x6A, 0x84,
  0xD9, 0x3E, 0x13, 0xFF, 0x9A, 0x3E, 0x44, 0x0C, 0x3E, 0x3E,
  0x8A, 0xBD, 0x89, 0x3E, 0xAF, 0x8C, 0x3D, 0x3D, 0xEA, 0xCA,
  0xCF, 0x3D, 0x24, 0xC5, 0xF5, 0x3D, 0x11, 0x03, 0x71, 0x3E,
  0x82, 0x05, 0xC5, 0x3B, 0x0A, 0xB1, 0xFE, 0x3D, 0x9E, 0xA5,
  0x8B, 0x3D, 0xC6, 0x83, 0xEC, 0x3E, 0xF4, 0x56, 0x9A, 0x3E,
  0xE0, 0x39, 0x5A, 0xBC, 0x16, 0x7F, 0x82, 0x3E, 0x7A, 0x45,
  0xB3, 0x3E, 0xB3, 0x38, 0xC7, 0x3E, 0x71, 0x2E, 0x8C, 0x3E,
  0x48, 0xEF, 0xDD, 0x3C, 0x5E, 0xF4, 0x20, 0xBD, 0x3A, 0xA1,
  0xF9, 0xBD, 0x3D, 0x8D, 0x77, 0x3D, 0x84, 0xD9, 0x50, 0x3D,
  0xBF, 0x54, 0x31, 0x3E, 0x9D, 0x61, 0x4D, 0x3E, 0x6C, 0xA8,
  0x9A, 0x3E, 0xE9, 0x2F, 0x9E, 0x3E, 0xFD, 0x69, 0xF9, 0x3E,
  0x86, 0x2F, 0xB9, 0x3E, 0x2F, 0xBC, 0x7A, 0x3E, 0xB1, 0x38,
  0x53, 0x3E, 0x55, 0xBF, 0x1D, 0x3E, 0xAB, 0xDE, 0xDB, 0x3D,
  0x95, 0x72, 0xD4, 0x3D, 0xCD, 0x24, 0x39, 0x3E, 0xE2, 0x02,
  0xBC, 0x3D, 0xBD, 0xE1, 0xF6, 0x3D, 0xA1, 0x21, 0x8B, 0x3E,
  0x4A, 0xFB, 0x28, 0x3E, 0x2F, 0x6A, 0x56, 0x3F, 0xD1, 0xF2,
  0xBD, 0x3E, 0xE2, 0x1D, 0x2E, 0x3E, 0xD3, 0xE3, 0x98, 0x3E,
  0xF4, 0x57, 0xBB, 0x3E, 0x04, 0x86, 0x05, 0x3F, 0x55, 0x50,
  0x6C, 0x3E, 0x31, 0x0B, 0xCB, 0x3B, 0xCC, 0x26, 0x06, 0xBD,
  0xE4, 0xAC, 0x7B, 0xBB, 0x11, 0xEB, 0x1E, 0xBC, 0x7E, 0x8B,
  0x8C, 0xBD, 0xDB, 0x63, 0xB1, 0x3D, 0xC3, 0xC3, 0x55, 0x3E,
  0x90, 0x85, 0xD5, 0x3E, 0x21, 0x7F, 0xFF, 0x3E, 0x75, 0x81,
  0x3B, 0x3F, 0x1F, 0x89, 0x2A, 0x3F, 0xFE, 0xEF, 0xE6, 0x3E,
  0x40, 0x0F, 0x77, 0x3E, 0xA5, 0xD1, 0x1A, 0x3E, 0x38, 0xA0,
  0xFB, 0x3D, 0x6C, 0x53, 0x4C, 0x3E, 0xBE, 0xB1, 0x1F, 0x3E,
  0x58, 0x5D, 0xA8, 0x3E, 0x0C, 0xED, 0x86, 0x3E, 0x89, 0x3F,
  0xCD, 0x3E, 0x4E, 0x52, 0x23, 0x3F, 0x15, 0xB1, 0x28, 0x3F,
  0x45, 0x5B, 0x75, 0x3E, 0xA0, 0xE5, 0x98, 0x3D, 0xD1, 0x85,
  0x42, 0x3E, 0x82, 0x9A, 0x5D, 0xBE, 0x35, 0x34, 0xBE, 0x3C,
  0xF8, 0x4A, 0x87, 0xBB, 0x37, 0x26, 0x6E, 0xBE, 0x28, 0x9D,
  0xA4, 0xBE, 0xDA, 0x5F, 0xBC, 0xBD, 0xAD, 0xED, 0xEE, 0xBD,
  0x07, 0x0D, 0x3F, 0xBA, 0x2D, 0xFE, 0xE9, 0xBD, 0xDE, 0x64,
  0x07, 0x3D, 0x66, 0xA6, 0xD2, 0x3D, 0xBD, 0x89, 0x92, 0x3D,
  0x77, 0x30, 0x8E, 0x3E, 0xED, 0xD7, 0xE3, 0x3E, 0x61, 0xD2,
  0x9B, 0x3E, 0xD1, 0xF6, 0xE8, 0x3E, 0x3A, 0x27, 0xCB, 0x3E,
  0xBF, 0x2E, 0xA7, 0x3E, 0xBC, 0xB6, 0x9E, 0x3E, 0xFD, 0x5A,
  0x9B, 0x3E, 0x8B, 0x45, 0xB4, 0x3E, 0xA1, 0xA9, 0xA5, 0x3E,
  0xFE, 0x68, 0x1A, 0x3F, 0x15, 0x19, 0x76, 0x3F, 0xC1, 0x67,
  0x72, 0x3F, 0x89, 0x21, 0x6D, 0x3F, 0xD5, 0xCA, 0xF8, 0x3D,
  0xE7, 0x55, 0x27, 0xBD, 0x94, 0x89, 0x6B, 0xBE, 0x93, 0xAC,
  0x85, 0xBE, 0xEF, 0x45, 0xA5, 0xBE, 0x8E, 0xAC, 0xB2, 0xBE,
  0xD2, 0xBF, 0xDD, 0xBE, 0x08, 0x71, 0xAC, 0xBE, 0xC2, 0x48,
  0x8B, 0xBE, 0x2D, 0xBF, 0x80, 0xBE, 0xDF, 0x55, 0xCB, 0xBE,
  0xF7, 0xDD, 0x06, 0xBF, 0x15, 0x95, 0x2D, 0xBF, 0x99, 0x51,
  0x0A, 0xBF, 0xF2, 0x7C, 0x05, 0xBE, 0x68, 0xB1, 0x72, 0x3D,
  0xB4, 0x8C, 0x84, 0x3E, 0xC4, 0x03, 0x9F, 0x3E, 0x07, 0xAF,
  0x5F, 0x3E, 0x73, 0x45, 0xAD, 0x3E, 0x08, 0xFE, 0x97, 0x3E,
  0xAF, 0x47, 0xD6, 0x3E, 0x79, 0xF2, 0xD7, 0x3E, 0xCC, 0x99,
  0xAC, 0x3E, 0x01, 0x78, 0x24, 0x3F, 0xF9, 0x33, 0x3A, 0x3F,
  0xD3, 0xC6, 0x01, 0x3F, 0x46, 0xEF, 0x99, 0xBD, 0x5E, 0x87,
  0x7F, 0x3E, 0x19, 0x2F, 0x1E, 0xBE, 0xDC, 0xC2, 0x57, 0xBE,
  0x92, 0x21, 0x92, 0xBE, 0x19, 0x10, 0xBD, 0xBE, 0x1E, 0x5F,
  0x95, 0xBE, 0xE2, 0xFF, 0x91, 0xBE, 0x73, 0x88, 0xB8, 0xBE,
  0x57, 0xC2, 0x7D, 0xBE, 0x9F, 0x30, 0xAF, 0xBE, 0x31, 0x6E,
  0xB0, 0xBE, 0x24, 0x88, 0xD0, 0xBE, 0xB1, 0x2F, 0xE9, 0xBE,
  0xBD, 0x4A, 0xB8, 0xBE, 0x70, 0x1D, 0x84, 0xBE, 0x80, 0xE5,
  0x23, 0xBE, 0xA4, 0xAF, 0xE6, 0xBA, 0x7B, 0x08, 0x2B, 0x3D,
  0x1A, 0x1B, 0x98, 0x3D, 0x44, 0xC1, 0x87, 0x3E, 0x97, 0x4B,
  0x3A, 0x3E, 0xE8, 0xCD, 0x78, 0x3E, 0xC7, 0x46, 0x6B, 0x3E,
  0xF7, 0x12, 0x97, 0x3E, 0x3D, 0xE4, 0xD1, 0x3E, 0x92, 0xC5,
  0xF6, 0x3E, 0x0B, 0x91, 0xF4, 0x3E, 0x7F, 0x08, 0xC5, 0xBE,
  0x40, 0x54, 0x84, 0x3A, 0x35, 0x62, 0x8C, 0xBE, 0x07, 0x95,
  0x81, 0xBE, 0x43, 0xD1, 0x31, 0xBD, 0x52, 0x20, 0x5A, 0xBE,
  0x76, 0x80, 0xFB, 0xBD, 0xEE, 0x4E, 0x2D, 0xBE, 0xBA, 0x7B,
  0x0F, 0xBE, 0x26, 0xA8, 0x8E, 0xBE, 0xCC, 0x2A, 0x12, 0xBE,
  0xDC, 0x00, 0x5B, 0xBE, 0xF8, 0x00, 0x0E, 0xBE, 0xB3, 0x3B,
  0xD0, 0xBD, 0xB2, 0x27, 0x0D, 0xBE, 0x79, 0x1B, 0x89, 0xBC,
  0x4F, 0xDB, 0xFB, 0xBD, 0xB2, 0x50, 0x19, 0x3E, 0x27, 0x1F,
  0x64, 0x3E, 0xC2, 0x32, 0x90, 0x3D, 0xE9, 0x96, 0x14, 0x3E,
  0x35, 0xC0, 0x14, 0x3C, 0x43, 0x7C, 0xE2, 0x3D, 0x9A, 0x13,
  0xC5, 0xBB, 0x3E, 0x22, 0x23, 0xBD, 0x30, 0x9B, 0xA0, 0xBE,
  0x04, 0x9D, 0xC4, 0xBD, 0x26, 0x8E, 0x36, 0x3F, 0xE7, 0xDD,
  0xA2, 0x3E, 0x1E, 0xC2, 0x85, 0xBD, 0xC7, 0x5A, 0x38, 0xBD,
  0x7B, 0x9F, 0x9E, 0xBE, 0x23, 0x5D, 0x6F, 0x3E, 0x12, 0x87,
  0x44, 0x3E, 0xB9, 0x97, 0xE2, 0x3C, 0xFA, 0x93, 0x54, 0xBB,
  0xD2, 0x78, 0x35, 0xBE, 0x4C, 0x32, 0xF3, 0xBB, 0x8E, 0x71,
  0x4C, 0xBD, 0x82, 0xEC, 0x4E, 0xBD, 0x19, 0x3C, 0x6E, 0xBD,
  0xE3, 0x08, 0xFC, 0xBD, 0x0F, 0xAA, 0x01, 0xBE, 0x17, 0xB4,
  0xD1, 0xBD, 0x6F, 0x8E, 0xB7, 0xBD, 0x80, 0x82, 0xCD, 0x3D,
  0xFD, 0x1F, 0xF1, 0x3D, 0xDF, 0x1E, 0x4B, 0x3E, 0x72, 0x66,
  0xB2, 0x3D, 0xD1, 0xDE, 0x6F, 0xBC, 0x46, 0x77, 0xD8, 0x3D,
  0x9F, 0x7B, 0xFC, 0xBD, 0xAF, 0x95, 0xD3, 0xBD, 0xD7, 0xBC,
  0x9F, 0xBD, 0x34, 0x84, 0xC1, 0xBC, 0x63, 0x0B, 0x17, 0x3E,
  0x0F, 0x3F, 0xCD, 0xBD, 0x00, 0xEC, 0x08, 0x3A, 0x50, 0xDF,
  0x8D, 0x3B, 0x77, 0x58, 0x81, 0xBE, 0xD9, 0x0B, 0x25, 0x3E,
  0x80, 0xC2, 0x62, 0x3E, 0xFC, 0x83, 0xCC, 0x3A, 0x80, 0xC5,
  0x16, 0x3D, 0x99, 0x4E, 0x30, 0x3C, 0x76, 0x2C, 0xFA, 0xBC,
  0xEC, 0x4F, 0xED, 0xBD, 0x6D, 0xE2, 0x39, 0xBE, 0x17, 0xF1,
  0x0B, 0xBE, 0x9C, 0xAF, 0x03, 0xBE, 0x60, 0xC6, 0x29, 0xBD,
  0xDA, 0x4C, 0x64, 0xBE, 0xCC, 0xAF, 0x9C, 0xBD, 0x47, 0x92,
  0xB4, 0x3D, 0xF5, 0x83, 0x00, 0x3E, 0xE1, 0x1C, 0x89, 0x3D,
  0x01, 0x11, 0xE1, 0x3D, 0x46, 0x2A, 0x7F, 0x3D, 0x6C, 0x93,
  0x9A, 0xBD, 0x96, 0x8B, 0xF2, 0xBC, 0x25, 0x87, 0x8C, 0xBD,
  0x3D, 0x84, 0x38, 0x3B, 0xA8, 0xCD, 0xB5, 0xBE, 0x3B, 0xB7,
  0xE6, 0xBE, 0x1A, 0x02, 0x68, 0xBD, 0x3D, 0xED, 0x42, 0xBD,
  0x7C, 0x8B, 0x78, 0x3D, 0xA4, 0x5A, 0x6F, 0x3E, 0xBA, 0x6D,
  0xD8, 0x3D, 0xED, 0x74, 0x11, 0x3E, 0xF5, 0x2C, 0x89, 0x3D,
  0x67, 0xAE, 0x0A, 0x3D, 0x95, 0xC3, 0x2E, 0xBE, 0x47, 0x49,
  0x8B, 0xBD, 0x1B, 0x10, 0x23, 0xBE, 0xB3, 0x27, 0x07, 0xBE,
  0x21, 0xB0, 0x32, 0xBE, 0xA3, 0xD8, 0x0A, 0xBE, 0x34, 0xE2,
  0x10, 0xBE, 0x15, 0x5A, 0x07, 0xBE, 0x56, 0x29, 0xC7, 0xBD,
  0x16, 0x9A, 0xAF, 0xBC, 0xD8, 0x0A, 0xF2, 0xBB, 0x15, 0xDD,
  0x29, 0x3D, 0xA7, 0xB4, 0x66, 0xBD, 0x98, 0x1C, 0xD7, 0xBD,
  0xB4, 0x2F, 0x28, 0x3C, 0x81, 0x40, 0x70, 0xBD, 0x0C, 0x21,
  0xDB, 0x3C, 0xDA, 0x1D, 0x9A, 0xBD, 0xB5, 0x82, 0xB7, 0xBE,
  0x6A, 0xBA, 0xC7, 0xBE, 0x39, 0xFF, 0xA6, 0x3E, 0x8D, 0xA3,
  0x0F, 0xBD, 0xC5, 0xE6, 0x64, 0xBD, 0x3E, 0xA3, 0x30, 0x3E,
  0xAA, 0x2E, 0x81, 0xBD, 0x42, 0x2B, 0x2F, 0xBE, 0x0A, 0x08,
  0x6E, 0xBE, 0x79, 0x16, 0x52, 0xBE, 0x60, 0x08, 0x2C, 0xBE,
  0x6A, 0xCB, 0xF1, 0xBD, 0x2D, 0x1C, 0xAA, 0xBD, 0x4F, 0x40,
  0xB4, 0x3C, 0x75, 0x6C, 0x78, 0xBE, 0xDC, 0x4E, 0x3E, 0xBE,
  0xFD, 0xC8, 0x8A, 0xBC, 0x13, 0xBB, 0x18, 0xBE, 0x8F, 0x54,
  0x50, 0xBE, 0x68, 0x87, 0x05, 0xBE, 0xC6, 0xEA, 0x6A, 0xBD,
  0x08, 0xF5, 0x65, 0xBD, 0x10, 0x23, 0x7A, 0xBD, 0x7D, 0xDA,
  0xD1, 0x3D, 0x3E, 0x74, 0xC0, 0x3B, 0xF7, 0x78, 0x1A, 0xBD,
  0xE6, 0x06, 0x83, 0xBB, 0x0F, 0xF4, 0xCA, 0x3C, 0x60, 0x67,
  0x19, 0xBE, 0xAB, 0x43, 0xFC, 0x3A, 0xEF, 0xB5, 0x04, 0x3F,
  0xC0, 0x05, 0xE1, 0x3B, 0x22, 0x2E, 0x1A, 0xBE, 0x1A, 0xA9,
  0xD1, 0x3E, 0x69, 0x0C, 0xFB, 0xBD, 0x9C, 0x14, 0x25, 0xBE,
  0x4D, 0xCE, 0xDB, 0xBE, 0x93, 0xDF, 0xE0, 0xBE, 0x41, 0x71,
  0x77, 0xBE, 0xE4, 0x68, 0xCC, 0xBE, 0xE9, 0x31, 0x17, 0xBE,
  0x2E, 0x26, 0xAC, 0xBD, 0x9B, 0xD5, 0x22, 0xBE, 0x34, 0x41,
  0xFF, 0xBC, 0xAA, 0xBD, 0x50, 0xBD, 0x3A, 0x01, 0x2F, 0xBE,
  0xCE, 0x2A, 0xE5, 0xBD, 0x96, 0xD2, 0x2D, 0xBD, 0xF4, 0x6D,
  0xDF, 0xBD, 0x32, 0x3F, 0x8B, 0xBC, 0x67, 0xB4, 0x3B, 0x3C,
  0x29, 0xF3, 0x48, 0x3D, 0x02, 0x19, 0xB7, 0x3C, 0x57, 0xE7,
  0x22, 0xBD, 0x86, 0xBC, 0x7D, 0x3A, 0x40, 0x56, 0x42, 0xBE,
  0xEF, 0xB3, 0x44, 0xBE, 0x10, 0xB6, 0x72, 0x3D, 0x84, 0xA6,
  0x0E, 0x3F, 0x04, 0x4D, 0xDF, 0x3C, 0x96, 0xB8, 0x8D, 0x3D,
  0x4B, 0x69, 0xBC, 0x3E, 0xFF, 0xDF, 0x28, 0x3E, 0x4E, 0xD0,
  0xE5, 0x3D, 0x65, 0x96, 0x63, 0xBE, 0x6A, 0xBC, 0x4C, 0xBE,
  0x56, 0x55, 0x51, 0xBE, 0xA4, 0xD1, 0x53, 0xBE, 0xC6, 0x81,
  0x38, 0xBE, 0x7C, 0x73, 0xA8, 0xBD, 0x15, 0x98, 0xA1, 0xBE,
  0xFB, 0xFD, 0xAD, 0xBE, 0x6A, 0x9A, 0x35, 0xBE, 0xCB, 0xC6,
  0x2B, 0xBE, 0xA5, 0x58, 0x57, 0xBE, 0x79, 0xD9, 0xE7, 0xBD,
  0x49, 0xA3, 0x41, 0xBE, 0x46, 0xFC, 0x51, 0xBD, 0xA1, 0x82,
  0x4F, 0x3D, 0xCE, 0x59, 0x6F, 0xBD, 0x16, 0x39, 0x1D, 0x3C,
  0xB9, 0xF5, 0x52, 0xBD, 0xD5, 0x6A, 0x47, 0x3C, 0xB0, 0x9A,
  0x05, 0xBE, 0x5D, 0x1E, 0xC1, 0xBD, 0xE6, 0x98, 0x08, 0xBD,
  0xD1, 0x50, 0x07, 0xBE, 0xA8, 0x44, 0x5B, 0x3D, 0x07, 0xA5,
  0x14, 0x3E, 0xBA, 0xD9, 0x11, 0x3F, 0xD7, 0x64, 0xA6, 0x3E,
  0x88, 0xF2, 0x0E, 0x3E, 0xBA, 0x2C, 0xD0, 0xBD, 0x78, 0x8E,
  0x86, 0xBE, 0xA4, 0x29, 0x96, 0xBE, 0x63, 0xA7, 0xA4, 0xBE,
  0xEB, 0x86, 0xD6, 0xBE, 0xEA, 0xBB, 0xE4, 0xBE, 0xB7, 0x7F,
  0xB6, 0xBE, 0xC2, 0xC0, 0xBB, 0xBE, 0x56, 0x86, 0xDA, 0xBE,
  0x4B, 0x0E, 0xE9, 0xBE, 0x12, 0x1B, 0xC5, 0xBE, 0x18, 0xCD,
  0x86, 0xBE, 0x9C, 0xBA, 0x2F, 0xBE, 0x6F, 0x57, 0x44, 0xBE,
  0x97, 0x80, 0x07, 0xBE, 0x2F, 0xCE, 0x55, 0xBD, 0x60, 0x07,
  0xB5, 0x3D, 0x11, 0x8C, 0x40, 0x3C, 0x29, 0x85, 0x2B, 0x3E,
  0x59, 0x3B, 0x66, 0x3E, 0x78, 0xDA, 0xAD, 0x3E, 0x89, 0x11,
  0xDA, 0x3E, 0x6D, 0xFA, 0x4D, 0x3E, 0x28, 0x1E, 0x9D, 0xBC,
  0x78, 0x09, 0xAB, 0x3D, 0xF0, 0xC6, 0x13, 0x3E, 0xFB, 0xC5,
  0xA6, 0x3E, 0x7D, 0x5E, 0x7A, 0x3E, 0x9D, 0x59, 0xD7, 0xBC,
  0x1E, 0x6D, 0x5C, 0xBB, 0x0E, 0xDB, 0x03, 0x3D, 0xA3, 0x29,
  0xC3, 0xBD, 0xAF, 0x7B, 0x33, 0xBE, 0xE2, 0x45, 0x3B, 0xBE,
  0xA0, 0x5F, 0x71, 0xBE, 0xFE, 0xA9, 0xC1, 0xBE, 0xD4, 0x2F,
  0x8C, 0xBE, 0x70, 0xC3, 0xAF, 0xBE, 0xF4, 0x83, 0xAB, 0xBE,
  0x8C, 0xF3, 0x96, 0xBE, 0xAB, 0x6C, 0xBE, 0xBD, 0x83, 0xCF,
  0x68, 0xBD, 0x66, 0x22, 0x98, 0xBC, 0x1E, 0x93, 0xD8, 0x3D,
  0x34, 0x1A, 0x81, 0x3E, 0xC0, 0xF4, 0x74, 0x3E, 0xF1, 0xE2,
  0x8D, 0x3E, 0x43, 0xCA, 0x8F, 0x3E, 0x1C, 0x4A, 0x11, 0x3F,
  0x61, 0x32, 0x1C, 0x3F, 0x17, 0x14, 0xC1, 0x3E, 0xFD, 0x56,
  0x4E, 0x3E, 0x6F, 0x4F, 0xA1, 0xBD, 0x40, 0x27, 0xE0, 0x3E,
  0x82, 0xF0, 0xA0, 0x3E, 0xDF, 0xBA, 0x85, 0x3E, 0x16, 0x7D,
  0xEE, 0x3D, 0xAD, 0xE0, 0xF9, 0xBC, 0x2A, 0x79, 0x82, 0x3D,
  0xFB, 0xD6, 0xFB, 0x3D, 0x22, 0x9C, 0x33, 0x3E, 0xA2, 0x4B,
  0x7D, 0x3E, 0x1C, 0x75, 0x63, 0x3E, 0x42, 0xB3, 0x08, 0x3E,
  0xDA, 0x47, 0x97, 0x3D, 0x7C, 0x93, 0x60, 0x3C, 0x11, 0x5B,
  0x6F, 0x3D, 0xD7, 0xDD, 0xC2, 0x3C, 0xB4, 0xFF, 0x10, 0x3E,
  0x57, 0x21, 0x2A, 0x3E, 0x3D, 0x5C, 0xC5, 0x3D, 0x0F, 0xBA,
  0x91, 0x3D, 0xFD, 0x4C, 0x0B, 0x3E, 0x17, 0x67, 0x78, 0x3E,
  0x2A, 0x76, 0x45, 0x3E, 0x4E, 0x02, 0xFE, 0x3E, 0x29, 0x87,
  0x0D, 0x3F, 0x86, 0x08, 0x08, 0x3F, 0x98, 0x05, 0x58, 0x3F,
  0x5E, 0x7F, 0x10, 0x3E, 0x3D, 0x35, 0xCF, 0x3D, 0xBF, 0xE0,
  0xF3, 0x3E, 0x99, 0x9D, 0xD0, 0x3E, 0x00, 0x21, 0x6C, 0x3E,
  0x6C, 0xBA, 0xB8, 0x3D, 0xE5, 0xD9, 0x04, 0x3E, 0x09, 0x0B,
  0xAD, 0x3D, 0x68, 0x64, 0xFC, 0x3D, 0xC2, 0x8B, 0x1B, 0x3E,
  0x3A, 0xB3, 0x19, 0x3D, 0x9B, 0x61, 0x13, 0x3E, 0xBD, 0xB0,
  0x20, 0x3E, 0xDA, 0xA6, 0x05, 0x3E, 0xE5, 0x70, 0xDA, 0x3C,
  0x1C, 0xA1, 0x90, 0x3D, 0x07, 0x2D, 0xAF, 0xBC, 0xC0, 0x3F,
  0x9A, 0xBD, 0xA9, 0xA0, 0x0F, 0x3D, 0x5B, 0xB8, 0xA7, 0x3C,
  0x3A, 0x25, 0x92, 0x3D, 0x93, 0xD9, 0x0A, 0x3E, 0xAE, 0xEF,
  0xF8, 0x3D, 0x21, 0x17, 0x51, 0x3E, 0xBA, 0xA9, 0xD2, 0x3E,
  0x0D, 0xF9, 0x1A, 0x3F, 0xC6, 0xD4, 0x19, 0x3F, 0x22, 0x7B,
  0x1F, 0x3F, 0x80, 0x9A, 0x56, 0xBA, 0x73, 0xF7, 0x14, 0xBE,
  0xD2, 0x42, 0x76, 0xBD, 0xCA, 0xE7, 0xE5, 0x3E, 0xE3, 0x7D,
  0xD9, 0x3E, 0x86, 0x28, 0xCA, 0x3D, 0x48, 0x5C, 0x50, 0x3E,
  0x44, 0x65, 0x07, 0x3E, 0xFD, 0xCA, 0xAE, 0x3D, 0x28, 0x7A,
  0x1B, 0x3E, 0x9C, 0x10, 0x37, 0x3D, 0x45, 0x2C, 0xA4, 0x3D,
  0x43, 0x93, 0xDD, 0x3D, 0x78, 0x79, 0x1A, 0x3E, 0x31, 0xE9,
  0x9B, 0x3D, 0x46, 0x4D, 0xC4, 0x3D, 0x33, 0xFD, 0xD5, 0xBD,
  0xB2, 0x48, 0xEB, 0xBD, 0x16, 0xCD, 0x2D, 0x3D, 0x4C, 0x0A,
  0x1B, 0xBE, 0x8C, 0xB1, 0x12, 0x3E, 0x4D, 0x46, 0x32, 0x3D,
  0x3A, 0x4C, 0xA7, 0xBC, 0xD2, 0x61, 0xBA, 0x3D, 0x76, 0xC9,
  0x8F, 0x3E, 0xEA, 0x79, 0xAB, 0x3E, 0xA6, 0x2D, 0x5B, 0x3E,
  0xE6, 0x02, 0xA6, 0x3E, 0x00, 0xC9, 0x2C, 0x3D, 0x60, 0x0A,
  0xB0, 0x3B, 0x9B, 0xA1, 0x7D, 0x3E, 0xAE, 0x09, 0xA5, 0x3E,
  0xB8, 0x9D, 0x25, 0x3E, 0xD1, 0xC9, 0x9B, 0xBD, 0x33, 0x40,
  0x63, 0x3D, 0x05, 0x7B, 0x22, 0x3D, 0x4B, 0xC9, 0xE7, 0x3D,
  0x78, 0xD3, 0x93, 0x3C, 0x7B, 0x48, 0x02, 0x3E, 0x22, 0x0E,
  0xD0, 0x3D, 0x68, 0x7B, 0x19, 0x3D, 0xA5, 0xB0, 0xB4, 0x3D,
  0x41, 0x5F, 0xFB, 0xBB, 0x8E, 0x10, 0x03, 0x3E, 0x5B, 0x34,
  0x1D, 0xBC, 0xA1, 0x39, 0xA9, 0xBD, 0x86, 0xAC, 0xA1, 0xBD,
  0xA6, 0x6A, 0xD2, 0xBD, 0xD6, 0xD3, 0x89, 0xBD, 0xE9, 0x73,
  0x8A, 0xBD, 0x10, 0xE9, 0x88, 0xBD, 0xA7, 0x56, 0xE8, 0xBD,
  0x15, 0xE1, 0x87, 0xBE, 0xEF, 0xD6, 0x07, 0xBF, 0xB5, 0xBE,
  0x01, 0xBE, 0x97, 0xC1, 0x06, 0xBE, 0x9D, 0xF9, 0xAF, 0xBD,
  0xD2, 0x00, 0x13, 0x3D, 0xCA, 0xB0, 0xA0, 0xBD, 0xC0, 0x93,
  0x4F, 0x3E, 0x62, 0x83, 0x81, 0x3E, 0xA6, 0x2E, 0x2D, 0xBE,
  0x28, 0x93, 0x33, 0x3D, 0x7A, 0xA8, 0x8F, 0x3D, 0x8F, 0x44,
  0xF5, 0x3D, 0x5C, 0xC4, 0x07, 0x3E, 0xFE, 0x24, 0xFD, 0x3D,
  0xFC, 0x20, 0xAD, 0x3D, 0x3C, 0x18, 0x0E, 0x3C, 0xBE, 0xB9,
  0x03, 0x3E, 0x19, 0x09, 0xE0, 0xBD, 0xF8, 0xD1, 0xC6, 0x3D,
  0x64, 0x18, 0x51, 0x3C, 0x80, 0x87, 0xC3, 0xBD, 0xEA, 0xA6,
  0x71, 0xBD, 0xB8, 0xC8, 0x29, 0xBE, 0xDC, 0xF5, 0xF9, 0xBE,
  0x4F, 0x3D, 0xE9, 0xBE, 0x01, 0x39, 0x10, 0xBF, 0x0A, 0x3E,
  0x30, 0xBF, 0x1D, 0xB6, 0x43, 0xBF, 0xFA, 0x9D, 0x25, 0xBF,
  0xEE, 0x25, 0xF8, 0xBE, 0xD6, 0xC8, 0xA0, 0x3D, 0xC7, 0x9B,
  0x5D, 0xBD, 0x70, 0x77, 0xA9, 0xBD, 0x02, 0x20, 0xBB, 0xBD,
  0xB1, 0xC3, 0xC5, 0xBD, 0x68, 0xA6, 0x8D, 0xBD, 0x9D, 0x52,
  0xD1, 0xBD, 0x9C, 0x9D, 0xC2, 0x3D, 0x08, 0x07, 0xA7, 0x3D,
  0xAF, 0x76, 0x2E, 0xBD, 0x44, 0x23, 0x09, 0x3D, 0x95, 0x58,
  0x54, 0xBD, 0xD4, 0xCA, 0x1E, 0x3D, 0x7E, 0xB6, 0x7E, 0xBD,
  0x0B, 0xA4, 0xE5, 0x3B, 0x8B, 0xF9, 0x02, 0xBD, 0x1B, 0x2A,
  0x3E, 0x3D, 0x37, 0x55, 0x66, 0xBD, 0xDB, 0x9A, 0xAC, 0xBD,
  0x88, 0xE7, 0x0A, 0xBE, 0x1C, 0x9E, 0x15, 0xBE, 0xB1, 0xB4,
  0xD2, 0xBE, 0x7B, 0xB6, 0xDF, 0xBE, 0xF8, 0x67, 0x07, 0xBF,
  0x15, 0x40, 0xF2, 0xBE, 0xD8, 0x00, 0x27, 0xBF, 0x07, 0x70,
  0x42, 0xBF, 0x2A, 0x1B, 0xD5, 0xBE, 0xB2, 0xD0, 0x9C, 0x3E,
  0xD0, 0xE4, 0x56, 0xBD, 0x42, 0x9A, 0x1F, 0xBD, 0xCA, 0x92,
  0x2D, 0x3E, 0xC7, 0x74, 0xAB, 0x3D, 0xA1, 0xE7, 0xF3, 0xBB,
  0x4A, 0x00, 0xB3, 0x3D, 0x63, 0x35, 0x21, 0x3E, 0x05, 0x88,
  0x0A, 0x3E, 0xF9, 0x02, 0x84, 0x3C, 0x1E, 0xAF, 0xFA, 0x3D,
  0xB1, 0x9E, 0x12, 0x3F, 0xC7, 0x31, 0xE2, 0x3E, 0x04, 0xD3,
  0xEB, 0x3D, 0xEC, 0x8D, 0x9F, 0x3D, 0x0F, 0x54, 0x84, 0xBD,
  0xF0, 0xA2, 0xB4, 0x3E, 0xAC, 0x0D, 0xA4, 0x3E, 0xA2, 0xD5,
  0xEB, 0x3D, 0xAA, 0xAE, 0xC2, 0x3D, 0x79, 0x92, 0xE9, 0x3D,
  0x32, 0x4F, 0x23, 0x3E, 0xD3, 0xCC, 0x23, 0x3F, 0xAB, 0x06,
  0x69, 0x3E, 0xF1, 0xB0, 0xE8, 0x3D, 0x60, 0x44, 0xA9, 0xBC,
  0x59, 0x3A, 0x0F, 0xBE, 0xAD, 0x8F, 0x7D, 0x3D, 0x0F, 0xC1,
  0x86, 0x3D, 0x7C, 0xAA, 0xB9, 0x3C, 0x84, 0x89, 0xA8, 0xBD,
  0x40, 0x40, 0x87, 0x3D, 0xFA, 0xB7, 0x9E, 0x3D, 0x8E, 0xBF,
  0xE6, 0xBC, 0xF6, 0xD1, 0x2C, 0xBD, 0xE4, 0x6C, 0x46, 0x3D,
  0x20, 0x24, 0xE2, 0xBB, 0x5C, 0x0F, 0xCA, 0xBC, 0x83, 0x19,
  0x9E, 0xBD, 0x64, 0x4F, 0x9A, 0x3D, 0xE0, 0x6D, 0x70, 0xBD,
  0xB1, 0xD2, 0x4B, 0xBD, 0xBC, 0x76, 0x57, 0x3D, 0xFE, 0xC2,
  0x84, 0xBD, 0xBF, 0x03, 0x82, 0xBD, 0x7C, 0x82, 0x29, 0x3D,
  0xB4, 0x6B, 0x93, 0xBD, 0x06, 0xB3, 0x8F, 0x3D, 0x50, 0x50,
  0x8A, 0xBC, 0x2C, 0x1C, 0x96, 0xBD, 0x12, 0xBC, 0x98, 0x3D,
  0xFC, 0xD3, 0xD7, 0x3C, 0x2C, 0x72, 0x9C, 0x3C, 0x00, 0x66,
  0xF9, 0x3C, 0xE8, 0xB9, 0x68, 0x3D, 0x94, 0xA9, 0x81, 0x3C,
  0xE4, 0x92, 0x14, 0x3D, 0xB4, 0x92, 0x80, 0xBC, 0xA4, 0x10,
  0xBD, 0xBC, 0x9C, 0xD6, 0xFE, 0x3C, 0x40, 0x60, 0xEC, 0x3C,
  0x24, 0x2F, 0xF8, 0x3C, 0xD4, 0x33, 0x86, 0xBD, 0x90, 0xBB,
  0x00, 0x3D, 0x9E, 0x87, 0x02, 0x3D, 0xF8, 0x50, 0x3E, 0xBC,
  0x0E, 0xFF, 0x86, 0xBD, 0x30, 0x0A, 0x07, 0x3C, 0x60, 0x1D,
  0x38, 0xBC, 0xF8, 0x8F, 0x22, 0xBC, 0xEC, 0x6A, 0x52, 0x3D,
  0x00, 0x12, 0xDB, 0x3C, 0x10, 0x07, 0x25, 0x3D, 0xA8, 0x52,
  0x7D, 0x3D, 0x29, 0xCC, 0x56, 0xBD, 0xD0, 0x78, 0x81, 0x3C,
  0x5C, 0xD9, 0x98, 0xBC, 0xDA, 0xEB, 0x13, 0x3D, 0xD8, 0xCB,
  0x71, 0x3C, 0x08, 0x29, 0x92, 0x3C, 0x0C, 0x4E, 0x25, 0x3D,
  0x8C, 0x63, 0xAC, 0x3D, 0x81, 0xA2, 0x1F, 0xBD, 0x40, 0x1A,
  0x3E, 0xBC, 0xF4, 0xC6, 0xAC, 0x3D, 0x8C, 0xAB, 0xFB, 0x3C,
  0x16, 0xF8, 0x92, 0x3D, 0x34, 0x02, 0x6D, 0xBD, 0x3E, 0x51,
  0x9D, 0xBD, 0x6E, 0x59, 0x66, 0x3E, 0xB0, 0x7D, 0x82, 0x3E,
  0x90, 0x51, 0x48, 0xBC, 0xC2, 0x23, 0x44, 0xBE, 0xA5, 0xCA,
  0x6C, 0xBD, 0x39, 0x28, 0xA5, 0xBE, 0x03, 0x5B, 0xB9, 0xBE,
  0x68, 0xD2, 0x58, 0xBD, 0xB7, 0xFB, 0x90, 0xBD, 0xAE, 0x68,
  0x25, 0x3F, 0x92, 0xCD, 0xD7, 0x3E, 0xD8, 0xEB, 0x14, 0xBE,
  0x74, 0xE8, 0x59, 0xBD, 0xF3, 0x29, 0x59, 0xBE, 0xAE, 0xAB,
  0x0E, 0x3E, 0x41, 0x9C, 0xBD, 0xBD, 0x0A, 0x15, 0x94, 0xBD,
  0x69, 0x54, 0xC8, 0x3E, 0x14, 0xF0, 0x90, 0xBE, 0x07, 0xA7,
  0x08, 0xBF, 0x4B, 0x15, 0xB1, 0xBC, 0x2A, 0xCF, 0x9E, 0xBE,
  0x57, 0x50, 0x38, 0xBF, 0xF2, 0x21, 0xE7, 0xBE, 0x18, 0xF5,
  0x3D, 0x3C, 0xF8, 0xE4, 0x55, 0x3C, 0x3E, 0x5B, 0x79, 0x3E,
  0xA5, 0x7E, 0xB0, 0xBE, 0xCB, 0x81, 0x28, 0xBE, 0x1D, 0x34,
  0x57, 0xBE, 0xEA, 0x9C, 0xBD, 0xBE, 0x4B, 0xCB, 0xD0, 0xBD,
  0xA4, 0xE1, 0x61, 0xBD, 0xE1, 0xA1, 0x3D, 0xBD, 0xBB, 0x1D,
  0xC8, 0xBD, 0x82, 0xE3, 0xA9, 0xBD, 0x0B, 0x33, 0x9F, 0x3C,
  0x24, 0x4B, 0x21, 0x3E, 0x48, 0x93, 0x99, 0xBD, 0xA0, 0x6D,
  0x0E, 0xBE, 0x37, 0x87, 0xA6, 0x3B, 0x33, 0xF7, 0xDE, 0xBD,
  0xDF, 0x5D, 0x3C, 0xBC, 0x9E, 0xDC, 0x10, 0xBE, 0x6C, 0x00,
  0x3E, 0x3D, 0x02, 0x40, 0xAE, 0xBD, 0xF3, 0x7F, 0xA8, 0xBD,
  0xEF, 0xCD, 0xAC, 0xBC, 0x19, 0xF0, 0xB4, 0xBC, 0xFD, 0x90,
  0xBF, 0xBE, 0xA2, 0x9A, 0x2E, 0xBF, 0xF5, 0xEB, 0x7F, 0xBF,
  0xE4, 0x0B, 0xBB, 0xBC, 0x70, 0xF1, 0x82, 0x3B, 0x65, 0x21,
  0x97, 0xBE, 0x93, 0xBC, 0x2B, 0xBF, 0xAA, 0xE9, 0xD9, 0xBE,
  0x07, 0x71, 0x78, 0xBD, 0xCE, 0x4E, 0xE7, 0xBD, 0x02, 0xC5,
  0x35, 0x3D, 0x40, 0xD7, 0x96, 0x3C, 0x0B, 0xE8, 0x45, 0x3E,
  0x1B, 0xB6, 0x5D, 0x3E, 0x55, 0x08, 0xBA, 0x3D, 0xE1, 0xEA,
  0xC0, 0x3C, 0x21, 0xD3, 0xC8, 0x3C, 0xD5, 0x30, 0x3C, 0x3E,
  0x45, 0xF9, 0xBA, 0x3D, 0xD2, 0xE7, 0x1C, 0x3E, 0xCC, 0xA9,
  0xC4, 0x3D, 0x32, 0x21, 0xCE, 0x3C, 0x56, 0x45, 0x46, 0x3D,
  0xA3, 0xAD, 0xD0, 0x3D, 0x55, 0x42, 0x1C, 0xBE, 0xBF, 0x48,
  0x60, 0xBD, 0x3E, 0x17, 0x0F, 0x3D, 0xC2, 0x42, 0x7F, 0xBD,
  0xAA, 0x44, 0xC2, 0xBE, 0x2C, 0x16, 0x24, 0xBF, 0x90, 0xA7,
  0x67, 0xBF, 0xFF, 0x38, 0x9F, 0xBD, 0x5A, 0xA8, 0x6B, 0x3E,
  0x1F, 0x9A, 0xD1, 0xBE, 0x0A, 0xE0, 0x04, 0xBF, 0x5F, 0x9A,
  0x0C, 0xBE, 0x2B, 0xD1, 0x69, 0x3E, 0xB3, 0x64, 0xAB, 0x3E,
  0xF6, 0x82, 0x06, 0x3E, 0xD1, 0xAA, 0xF7, 0x3D, 0x87, 0x9E,
  0x5D, 0x3D, 0x01, 0x72, 0xAC, 0x3D, 0x8A, 0x6E, 0x06, 0xBB,
  0xE8, 0xCA, 0x05, 0x3D, 0x01, 0xB7, 0x9C, 0x3D, 0xD8, 0x30,
  0x09, 0x3E, 0x83, 0x01, 0x2E, 0x3D, 0x69, 0xF7, 0x6D, 0x3C,
  0x2A, 0x85, 0x00, 0x3E, 0x1F, 0xD5, 0x59, 0xBB, 0x63, 0x92,
  0x1A, 0x3D, 0xE2, 0x08, 0x06, 0xBD, 0x0E, 0xCB, 0x09, 0x3C,
  0x18, 0xA9, 0xA8, 0x3B, 0xFA, 0x05, 0x15, 0xBE, 0x33, 0x4D,
  0xB9, 0xBE, 0x73, 0x26, 0x76, 0xBE, 0xF8, 0x74, 0x0E, 0x3C,
  0x8F, 0xA6, 0x8D, 0x3E, 0x44, 0x70, 0xB1, 0x3C, 0x64, 0x70,
  0x5A, 0x3E, 0x6A, 0xA2, 0xF3, 0x3D, 0xDB, 0xCD, 0xAB, 0x3D,
  0x14, 0xBE, 0xDE, 0x3D, 0x39, 0xFC, 0x33, 0x3E, 0x48, 0x68,
  0x6D, 0x3D, 0x35, 0xEA, 0xD4, 0x3C, 0xEA, 0x56, 0x10, 0x3E,
  0x0D, 0x95, 0xAD, 0x3D, 0xA8, 0xE1, 0x17, 0xBD, 0x02, 0x3A,
  0x27, 0x3D, 0xF2, 0xC3, 0xEF, 0x3A, 0x12, 0xCA, 0xDE, 0x3B,
  0xA1, 0x3A, 0xE5, 0x3B, 0xCB, 0x86, 0xA3, 0x3D, 0xD9, 0xB3,
  0xA0, 0x3D, 0xB8, 0xDD, 0x2F, 0x3D, 0xC6, 0x5E, 0xB3, 0x3C,
  0x65, 0x32, 0x6B, 0x3C, 0x92, 0x61, 0xB0, 0xBD, 0x4D, 0x63,
  0x75, 0x3B, 0x3F, 0x27, 0x42, 0xBD, 0x0E, 0xCF, 0x21, 0xBD,
  0x03, 0xAE, 0x22, 0xBE, 0x22, 0xFF, 0x77, 0xBE, 0x58, 0x24,
  0xB2, 0x3E, 0xCC, 0xBC, 0x6D, 0x3E, 0xE6, 0xB1, 0xE6, 0xBC,
  0x20, 0xF3, 0x8D, 0x3E, 0xB0, 0xA3, 0xF3, 0xBE, 0xDF, 0x52,
  0x73, 0xBD, 0xB5, 0x7B, 0x68, 0x3D, 0xF3, 0x9B, 0x0A, 0xBE,
  0xF3, 0xD5, 0xE2, 0xBD, 0xE2, 0x1B, 0xA8, 0xBC, 0x7F, 0xE3,
  0xD5, 0xBC, 0x2A, 0x4B, 0x52, 0x3C, 0x56, 0x14, 0x9C, 0x3D,
  0xB4, 0xF6, 0x43, 0xBB, 0xBF, 0xB3, 0xA5, 0xBC, 0x4B, 0xEB,
  0x18, 0x3D, 0x8D, 0xCF, 0xE7, 0xBD, 0x1A, 0x90, 0xDC, 0x3D,
  0x5C, 0xAE, 0xB7, 0x3C, 0x35, 0xAF, 0x0F, 0x3D, 0x5E, 0xEC,
  0xE3, 0x39, 0x3A, 0x61, 0x34, 0xBD, 0x10, 0x93, 0xF5, 0xBD,
  0x73, 0xE7, 0x92, 0xBD, 0xF7, 0x13, 0x4C, 0xBD, 0xB6, 0xA1,
  0xB3, 0xBC, 0xBC, 0x43, 0x24, 0xBD, 0xE5, 0x91, 0xA9, 0xBC,
  0xBC, 0xDA, 0xC1, 0x3E, 0xB3, 0x31, 0x42, 0x3F, 0xBC, 0x33,
  0x7F, 0x3D, 0xF8, 0x91, 0x6D, 0x3D, 0xE7, 0x36, 0x34, 0xBE,
  0x6E, 0xC0, 0xA2, 0x3E, 0x3E, 0x28, 0x2D, 0x3E, 0x40, 0x39,
  0x28, 0xBD, 0x0A, 0xE9, 0x23, 0x3E, 0xD5, 0xBB, 0xFA, 0x3D,
  0x68, 0xF6, 0x31, 0x3D, 0xED, 0x22, 0x32, 0x3C, 0xD6, 0x3E,
  0x1B, 0x3B, 0x2C, 0x2D, 0xE9, 0x3B, 0xB7, 0x20, 0x80, 0x3D,
  0x12, 0xED, 0x40, 0x3E, 0x0D, 0xC7, 0xA5, 0x3D, 0xB5, 0x4A,
  0xA3, 0x3D, 0x6F, 0x6D, 0x94, 0x3D, 0xB2, 0xD3, 0x94, 0xBD,
  0x6B, 0x0D, 0xEA, 0x3D, 0x7B, 0xC5, 0xAE, 0x3C, 0x21, 0x81,
  0x07, 0xBE, 0xD3, 0x0E, 0x04, 0x3E, 0x78, 0x32, 0x90, 0x3D,
  0xC5, 0x6B, 0x19, 0xBD, 0xE8, 0xA4, 0xC6, 0x3D, 0x9C, 0x8C,
  0xFF, 0x3E, 0x83, 0xF7, 0x82, 0x3F, 0x6E, 0x64, 0xB2, 0x3F,
  0x86, 0x64, 0x72, 0x3C, 0x91, 0x86, 0xDD, 0x3D, 0xE0, 0x2C,
  0x86, 0x3E, 0x42, 0xB9, 0xEA, 0x3E, 0x6E, 0x91, 0xFF, 0x3D,
  0xBA, 0x1A, 0x37, 0x3E, 0xB7, 0x67, 0x16, 0x3D, 0x7A, 0xA5,
  0x5C, 0x3D, 0xAD, 0x82, 0x1B, 0xBD, 0xB1, 0xB4, 0x62, 0xBD,
  0x32, 0x62, 0x25, 0xBD, 0x12, 0xDD, 0xE3, 0xBC, 0x6E, 0x10,
  0xEB, 0x3D, 0x4D, 0x06, 0x50, 0x3E, 0x6A, 0xD8, 0xCC, 0x3D,
  0xD1, 0x63, 0x8A, 0x3D, 0x20, 0x09, 0x9D, 0xBD, 0x33, 0xBF,
  0xC2, 0xBD, 0x51, 0xB9, 0x28, 0xBE, 0x51, 0x4A, 0x9D, 0xBB,
  0x1A, 0x89, 0xCE, 0x3B, 0x74, 0xF5, 0x0C, 0x3D, 0x8A, 0x60,
  0xFB, 0x3C, 0x49, 0x18, 0x12, 0x3E, 0x24, 0x0F, 0x86, 0x3E,
  0x06, 0x79, 0x52, 0x3F, 0xE6, 0x65, 0xDD, 0x3F, 0xE8, 0xE4,
  0x9E, 0x3F, 0xE1, 0xE1, 0xB8, 0xBD, 0x72, 0x37, 0xB9, 0x3E,
  0xF1, 0x4F, 0x3A, 0x3E, 0x91, 0x6D, 0x17, 0x3F, 0x3F, 0x8B,
  0x3C, 0x3E, 0x8D, 0x44, 0xF0, 0xBD, 0x0C, 0x06, 0x8F, 0xBE,
  0x91, 0xF8, 0x41, 0xBD, 0x6A, 0xAD, 0x82, 0xBD, 0x3F, 0xF6,
  0x07, 0xBE, 0xA2, 0x53, 0x26, 0xBE, 0x92, 0xB1, 0x27, 0xBD,
  0x9C, 0xB6, 0xAF, 0xBD, 0x99, 0xCC, 0xA8, 0x3D, 0xF0, 0x33,
  0xBC, 0xBD, 0xDF, 0xA3, 0x19, 0xBD, 0x3C, 0x0A, 0xDD, 0xBC,
  0x9A, 0xF1, 0x4C, 0xBE, 0x8D, 0x96, 0xCC, 0xBD, 0x1E, 0xD4,
  0x39, 0xBE, 0x42, 0x02, 0xE0, 0xBD, 0xE7, 0x8E, 0xE2, 0x3C,
  0x97, 0xA0, 0x0D, 0x3D, 0x45, 0x85, 0x59, 0x3E, 0x6C, 0xB2,
  0x11, 0x3E, 0x1E, 0xFA, 0x02, 0x3F, 0x9B, 0x9B, 0xA1, 0x3F,
  0x45, 0xBD, 0xE5, 0x3F, 0x1B, 0xE1, 0x97, 0x3E, 0x0E, 0xBF,
  0xD9, 0x3E, 0x20, 0x2A, 0xDB, 0x3E, 0x49, 0xA8, 0xED, 0x3E,
  0x48, 0xCA, 0xDB, 0x3A, 0xDB, 0xB3, 0x24, 0xBE, 0xE6, 0x44,
  0x41, 0xBE, 0x33, 0x03, 0x34, 0xBE, 0x95, 0xEA, 0xFE, 0xBD,
  0x83, 0xC0, 0xCE, 0xBD, 0xB0, 0xCF, 0x31, 0xBE, 0x19, 0x4D,
  0x5A, 0xBE, 0x47, 0xB5, 0x51, 0xBE, 0xEB, 0x1C, 0x3C, 0xBE,
  0x14, 0xD9, 0xA6, 0xBD, 0xAC, 0xFA, 0x26, 0xBE, 0x83, 0x09,
  0x2D, 0xBE, 0xF6, 0xF9, 0x52, 0xBE, 0x9B, 0xBF, 0x1E, 0xBE,
  0xE2, 0x94, 0x81, 0xBE, 0xFE, 0x1E, 0x85, 0xBE, 0x40, 0xBC,
  0x4A, 0xBE, 0x73, 0xC5, 0xE9, 0xBE, 0xB3, 0x29, 0x94, 0xBE,
  0x71, 0xC9, 0x0D, 0xBF, 0x7E, 0x89, 0x8E, 0xBE, 0xB6, 0x1E,
  0x50, 0x3E, 0x73, 0xB8, 0x84, 0x3F, 0xA0, 0xBD, 0x1A, 0x3C,
  0xC2, 0x63, 0x4B, 0x3E, 0x2B, 0xC9, 0x8C, 0xBA, 0xA9, 0xA7,
  0xC2, 0x3B, 0xAA, 0xEF, 0x91, 0xBC, 0x7A, 0xD4, 0xFB, 0xBD,
  0x52, 0x64, 0x32, 0x3C, 0x02, 0xE4, 0x11, 0xBD, 0x02, 0x31,
  0x15, 0xBE, 0xB7, 0x87, 0x41, 0xBE, 0x1E, 0xA5, 0x30, 0xBD,
  0xF0, 0x26, 0x11, 0xBD, 0x2D, 0xCB, 0x7D, 0xBD, 0xF2, 0xAB,
  0xB3, 0xBB, 0xBD, 0xEF, 0x09, 0xBE, 0x71, 0x46, 0x15, 0xBE,
  0x6E, 0x48, 0x2A, 0xBD, 0x74, 0xC0, 0x3F, 0xBE, 0xD1, 0xA8,
  0x95, 0xBC, 0x02, 0xB1, 0x8F, 0xBE, 0x64, 0x8C, 0xBD, 0xBD,
  0xAC, 0x7E, 0x11, 0xBE, 0x31, 0x81, 0x98, 0xBE, 0x10, 0xE0,
  0xD1, 0xBE, 0x82, 0x6B, 0x2E, 0xBF, 0x18, 0xA0, 0xF0, 0xBE,
  0xEE, 0x93, 0x76, 0xBE, 0x07, 0x39, 0xC5, 0x3D, 0x63, 0x55,
  0x93, 0xBD, 0x54, 0xA3, 0x6E, 0x3D, 0x7A, 0x61, 0x12, 0x3F,
  0xF9, 0x0C, 0xD0, 0x3E, 0x24, 0xAD, 0xBE, 0x3D, 0x20, 0x02,
  0x5C, 0x3B, 0x49, 0xFA, 0xBA, 0xBC, 0xDA, 0xA2, 0x6C, 0xBD,
  0x2A, 0x32, 0x27, 0xBE, 0xE7, 0x9B, 0x94, 0xBD, 0xF8, 0xC1,
  0x04, 0xBE, 0x92, 0x1C, 0x65, 0xBE, 0x66, 0xC9, 0x77, 0x3C,
  0x7D, 0x09, 0xA9, 0x3D, 0xF3, 0xE7, 0x06, 0xBD, 0xEA, 0x74,
  0x8D, 0x3C, 0xE0, 0xCB, 0x97, 0xBC, 0xAB, 0xCF, 0xAB, 0xBD,
  0xBA, 0x08, 0xC6, 0x3C, 0xE2, 0xFE, 0x0E, 0xBC, 0x84, 0x08,
  0x62, 0xBD, 0x6A, 0xCE, 0x66, 0xBE, 0x86, 0xA2, 0x21, 0xBE,
  0x59, 0xC8, 0xE5, 0xBE, 0xC4, 0x31, 0x16, 0xBF, 0x76, 0x7F,
  0x08, 0xBF, 0x56, 0x8E, 0x01, 0xBF, 0xFA, 0xAA, 0x80, 0x3E,
  0xD8, 0xC4, 0xF2, 0xBC, 0xAC, 0xD9, 0x55, 0x3D, 0x56, 0x6E,
  0x0E, 0x3F, 0x94, 0x34, 0x5A, 0x3D, 0xFF, 0x86, 0x83, 0x3D,
  0x27, 0x34, 0x22, 0xBD, 0x81, 0x36, 0x08, 0xBE, 0x1D, 0x61,
  0xE6, 0x3C, 0xD6, 0x12, 0x93, 0xBD, 0x80, 0xC2, 0xA9, 0xBD,
  0x1E, 0x6C, 0xF4, 0xBB, 0xEA, 0x39, 0x41, 0xBB, 0x16, 0x77,
  0x52, 0x3E, 0xAE, 0xBC, 0xAB, 0x3D, 0xC3, 0xB8, 0x67, 0x3D,
  0x6E, 0xF6, 0x8D, 0xBC, 0x9C, 0x3A, 0xDD, 0x3C, 0xC3, 0x88,
  0x7B, 0x3C, 0x71, 0x4B, 0x5A, 0xBD, 0xFA, 0xE5, 0x01, 0xBE,
  0x50, 0x18, 0x09, 0xBE, 0x60, 0x58, 0x86, 0xBE, 0xD8, 0x63,
  0xC9, 0xBD, 0xC5, 0x8F, 0x2B, 0xBE, 0x39, 0x8E, 0x91, 0xBE,
  0x55, 0xBF, 0x21, 0xBC, 0x4A, 0xD2, 0x3E, 0x3D, 0x96, 0xA9,
  0xAD, 0x3E, 0x50, 0x45, 0xD3, 0x3B, 0xDE, 0x02, 0x69, 0xBD,
  0xD4, 0xE2, 0x0A, 0x3F, 0x85, 0x89, 0xCD, 0x3D, 0xBC, 0xF3,
  0x38, 0xBE, 0x9C, 0x86, 0xBE, 0xBE, 0x92, 0xFA, 0xA0, 0xBD,
  0x72, 0xA7, 0x3C, 0xBE, 0x09, 0xB5, 0x6A, 0xBD, 0xE0, 0xB7,
  0x8B, 0xBD, 0x01, 0x51, 0xBD, 0xBD, 0xEE, 0x22, 0x39, 0xBD,
  0xBD, 0x6D, 0x64, 0x3D, 0x49, 0x27, 0x83, 0x3C, 0x3D, 0x59,
  0x37, 0xBC, 0xDB, 0xB1, 0x2F, 0xBD, 0xAE, 0x95, 0x5D, 0x3C,
  0x81, 0x4B, 0x06, 0xBE, 0xCA, 0x03, 0xB8, 0x3C, 0x30, 0xA7,
  0x16, 0xBE, 0x55, 0x70, 0xC7, 0xBD, 0xA4, 0xB1, 0x0D, 0xBE,
  0x1E, 0xE6, 0x03, 0xBE, 0x87, 0xF7, 0x19, 0xBE, 0x84, 0xED,
  0xFA, 0xBD, 0x2A, 0xC6, 0xAD, 0x3D, 0x1F, 0xA7, 0x59, 0x3D,
  0x71, 0x83, 0x02, 0x3E, 0xAA, 0x5C, 0x9F, 0xBD, 0xC0, 0x0A,
  0x8A, 0xBE, 0x8A, 0x20, 0x70, 0x3F, 0x21, 0xD8, 0x72, 0x3E,
  0xB1, 0x6F, 0x6F, 0x3C, 0xCE, 0xF0, 0x46, 0xBE, 0xD5, 0xA0,
  0xA7, 0x3D, 0xCE, 0xEB, 0xB9, 0x3D, 0x77, 0x2C, 0x9A, 0x3D,
  0x44, 0x17, 0xFF, 0xBD, 0x17, 0x10, 0x79, 0xBC, 0xAF, 0x90,
  0xFC, 0x3D, 0x8A, 0xE8, 0x19, 0x3E, 0xEA, 0x67, 0x88, 0x3B,
  0x66, 0xFD, 0x4A, 0x3D, 0x69, 0x2E, 0xD8, 0xBC, 0x13, 0x1F,
  0xC0, 0xBC, 0x42, 0x28, 0xE2, 0xBC, 0x19, 0xE0, 0x26, 0xBC,
  0xBD, 0xE1, 0x9C, 0xBE, 0x2E, 0xF1, 0xC9, 0xBD, 0xD0, 0xFF,
  0xCB, 0x3C, 0x60, 0xB5, 0x4F, 0xBD, 0xB6, 0x2F, 0xEE, 0x3D,
  0xAE, 0xB1, 0xEE, 0x3D, 0xA2, 0x4F, 0xC3, 0xBD, 0x5D, 0x99,
  0x46, 0xBE, 0x9E, 0xA6, 0x9A, 0x3E, 0x60, 0xC7, 0xA9, 0x3C,
  0x94, 0x71, 0xC2, 0xBE, 0x9F, 0x71, 0x72, 0x3F, 0x8B, 0xFB,
  0x00, 0x3F, 0x2A, 0xCB, 0xC8, 0x3D, 0x5E, 0xAE, 0xF3, 0xBD,
  0x49, 0xF1, 0x14, 0xBE, 0xDC, 0x53, 0x07, 0xBE, 0x99, 0x73,
  0x2D, 0x3D, 0x9F, 0xCD, 0xD7, 0x3D, 0x33, 0x88, 0x12, 0x3D,
  0xAB, 0x78, 0xC5, 0x3D, 0xA4, 0xDF, 0x53, 0x3D, 0xB4, 0xBD,
  0x5F, 0x3D, 0x32, 0xE0, 0x29, 0x3C, 0x1E, 0x34, 0xA3, 0x3D,
  0x02, 0x32, 0xD6, 0xBB, 0x83, 0x0F, 0x33, 0xBE, 0xD5, 0x5C,
  0xBA, 0x3C, 0xB3, 0xC1, 0x39, 0xBE, 0x98, 0xF5, 0x88, 0x3C,
  0x32, 0x92, 0x82, 0xBD, 0x3F, 0xDE, 0x98, 0xBD, 0xD9, 0xE4,
  0x6E, 0x3D, 0x3E, 0x8E, 0xFB, 0xBD, 0xEC, 0x83, 0x2F, 0xBE,
  0x1E, 0xD7, 0xA8, 0xBE, 0x7F, 0xF2, 0x01, 0x3F, 0x74, 0xAC,
  0x32, 0x3D, 0x00, 0xD8, 0x07, 0xBE, 0xDF, 0x8B, 0xBE, 0x3F,
  0x26, 0xB0, 0x4B, 0x3F, 0xD2, 0x4F, 0x32, 0x3E, 0x06, 0x2F,
  0xF9, 0xBD, 0x8D, 0x91, 0xA4, 0xBE, 0x53, 0x85, 0xB7, 0xBE,
  0x7C, 0x48, 0xED, 0xBD, 0x0E, 0x4E, 0xE2, 0x3D, 0xA9, 0xDD,
  0x95, 0x3D, 0x0E, 0x8E, 0x8A, 0x3C, 0x34, 0x36, 0x9C, 0xBB,
  0xE3, 0xFA, 0xCA, 0xBC, 0x77, 0x05, 0x0B, 0x3C, 0x5E, 0xE3,
  0x2E, 0x3D, 0x82, 0x96, 0x75, 0xBD, 0x22, 0xA0, 0x4D, 0x3C,
  0xBB, 0x53, 0x63, 0x3D, 0xA5, 0x07, 0xAC, 0xBD, 0x0F, 0x91,
  0x3E, 0x3E, 0x27, 0xD3, 0x2A, 0xBC, 0x0F, 0x2D, 0x8D, 0xBD,
  0x38, 0x7F, 0x89, 0x3D, 0x72, 0x9A, 0x29, 0xBE, 0x33, 0x0F,
  0x06, 0xBE, 0x9D, 0xE5, 0xE4, 0x3D, 0x80, 0xF3, 0x84, 0x3F,
  0x88, 0x82, 0x07, 0xBC, 0x01, 0x0C, 0xA6, 0xBE, 0x93, 0xF6,
  0xB3, 0x3F, 0x6A, 0xF5, 0x7D, 0x3F, 0x7E, 0x9A, 0xAB, 0x3E,
  0xEF, 0x29, 0xAA, 0x3D, 0x76, 0x98, 0x14, 0x3C, 0x34, 0x82,
  0x90, 0x3D, 0x65, 0xB7, 0x82, 0xBC, 0x7B, 0x91, 0xCE, 0xBD,
  0x12, 0xF0, 0x04, 0xBE, 0xFD, 0x4B, 0x42, 0xBE, 0xD4, 0x89,
  0x03, 0xBE, 0x2E, 0xC1, 0x25, 0xBE, 0x4B, 0x5F, 0x12, 0xBE,
  0x17, 0xA5, 0xFD, 0xBD, 0xCB, 0x6E, 0xC5, 0xBD, 0x25, 0x93,
  0xE5, 0xBD, 0xFC, 0x17, 0x2C, 0x3D, 0xEA, 0xE1, 0x66, 0xBD,
  0x8B, 0x16, 0x1F, 0x3D, 0xA4, 0x31, 0x56, 0xBD, 0xC0, 0x5B,
  0x65, 0x3E, 0xD5, 0x46, 0x0D, 0x3E, 0x86, 0xE8, 0xB5, 0x3B,
  0xDF, 0x7B, 0x3A, 0x3E, 0xFD, 0x4A, 0xD4, 0x3E, 0x6E, 0xA7,
  0x70, 0x3F, 0x84, 0x9F, 0x86, 0xBC, 0xA1, 0xBE, 0xA1, 0xBE,
  0xCE, 0xB0, 0x4B, 0x3F, 0xD4, 0xE2, 0x28, 0x3F, 0x46, 0x3A,
  0xF4, 0x3E, 0x57, 0x29, 0xBC, 0x3E, 0x51, 0xB0, 0x67, 0x3E,
  0xAD, 0xA1, 0x21, 0x3E, 0x87, 0x86, 0x17, 0x3E, 0x4D, 0xFF,
  0x09, 0x3E, 0x59, 0x2E, 0x17, 0x3D, 0xCA, 0xCE, 0x99, 0xBD,
  0x50, 0x2F, 0x12, 0xBE, 0x15, 0x17, 0xCB, 0xBD, 0x21, 0x89,
  0x94, 0xBD, 0x9B, 0x69, 0x70, 0x3B, 0xF3, 0x04, 0x96, 0xBD,
  0x30, 0x13, 0xFC, 0x3D, 0xEA, 0xA8, 0x13, 0x3E, 0x84, 0x14,
  0x03, 0x3E, 0x9C, 0x15, 0xEB, 0x3D, 0xB8, 0x1A, 0x6F, 0x3E,
  0xCD, 0x1D, 0xA7, 0x3D, 0x7D, 0x0D, 0x0E, 0x3E, 0x35, 0x0C,
  0x07, 0x3E, 0x7A, 0xD4, 0x92, 0x3E, 0x7A, 0x36, 0x4C, 0x3F,
  0x0A, 0x5B, 0x55, 0x3F, 0x3F, 0x2D, 0x30, 0x3E, 0x0C, 0xAC,
  0x37, 0xBE, 0x27, 0xA1, 0x84, 0x3F, 0x93, 0x82, 0x85, 0x3F,
  0xDE, 0xEE, 0xEC, 0x3E, 0xF9, 0x84, 0xF5, 0x3E, 0x24, 0xB1,
  0xC5, 0x3E, 0x4A, 0x2E, 0xB5, 0x3E, 0xA8, 0xDB, 0xBD, 0x3E,
  0x5D, 0x70, 0xEC, 0x3E, 0x4E, 0x1B, 0x97, 0x3E, 0x4F, 0x1E,
  0x53, 0x3E, 0xBA, 0x20, 0x7E, 0x3E, 0xE2, 0xEF, 0xFD, 0x3D,
  0x09, 0xA5, 0xAA, 0x3D, 0x21, 0x6C, 0x71, 0x3E, 0xFE, 0x97,
  0x87, 0x3E, 0x39, 0x65, 0xA5, 0x3E, 0x3D, 0x47, 0xB3, 0x3E,
  0x53, 0x82, 0x30, 0x3E, 0x47, 0x3C, 0x8E, 0x3E, 0x61, 0xC3,
  0xB5, 0x3E, 0xBE, 0x45, 0xC6, 0x3E, 0xD6, 0x51, 0xB4, 0x3E,
  0xE6, 0x2B, 0xC2, 0x3E, 0x57, 0x2A, 0x0F, 0x3F, 0x34, 0xB7,
  0x4A, 0x3F, 0x17, 0x13, 0x2B, 0x3F, 0x36, 0x18, 0xD5, 0x3D,
  0xBE, 0xF7, 0x90, 0xBE, 0xEC, 0xCF, 0x5F, 0x3F, 0x32, 0x33,
  0x97, 0x3F, 0x83, 0x23, 0x36, 0x3F, 0x96, 0x75, 0xFF, 0x3E,
  0xF2, 0xFA, 0xE9, 0x3E, 0xD2, 0x02, 0xA6, 0x3E, 0xB5, 0xAB,
  0x58, 0x3E, 0xF0, 0xC3, 0xA0, 0x3E, 0x8C, 0x85, 0x84, 0x3E,
  0xCD, 0x10, 0x89, 0x3E, 0x2D, 0x09, 0xAA, 0x3E, 0x8E, 0x4F,
  0xA7, 0x3E, 0x59, 0x7B, 0x77, 0x3E, 0x08, 0x27, 0x7E, 0x3E,
  0xA5, 0x1D, 0x25, 0x3E, 0xD3, 0x18, 0x6A, 0x3E, 0xCE, 0xD9,
  0x7D, 0x3E, 0x83, 0xC8, 0x85, 0x3E, 0xDB, 0x5A, 0xBD, 0x3E,
  0x38, 0x65, 0x80, 0x3E, 0x09, 0x0C, 0x53, 0x3E, 0xDF, 0x14,
  0xFD, 0x3E, 0xB0, 0xF9, 0xC3, 0x3E, 0x5E, 0xCF, 0xB2, 0x3E,
  0x5B, 0x01, 0xDD, 0x3E, 0x30, 0xA0, 0x81, 0x3F, 0x00, 0xC9,
  0xF7, 0x3C, 0x19, 0xB6, 0x9E, 0xBE, 0xC0, 0xF7, 0x98, 0x3F,
  0x2D, 0x47, 0x85, 0x3F, 0x54, 0x44, 0x03, 0x3F, 0x27, 0x72,
  0x8C, 0x3E, 0xC1, 0x2A, 0xB0, 0x3E, 0x41, 0xB8, 0x6C, 0x3E,
  0x2A, 0x98, 0x5A, 0x3E, 0xD8, 0xA1, 0x3B, 0x3E, 0xAC, 0xB9,
  0x2E, 0x3E, 0x77, 0x27, 0xBF, 0x3E, 0x1D, 0x68, 0xCB, 0x3E,
  0xC5, 0xDD, 0x95, 0x3E, 0x7E, 0x35, 0xAD, 0x3E, 0xCF, 0x9F,
  0xC0, 0x3D, 0x1A, 0xB5, 0x9D, 0x3E, 0x23, 0x66, 0x40, 0x3E,
  0xCC, 0xCD, 0x59, 0x3E, 0x5A, 0x24, 0x5D, 0x3E, 0xC2, 0xE6,
  0x74, 0x3E, 0x63, 0xFA, 0x76, 0x3E, 0x74, 0xFC, 0xA6, 0x3E,
  0xAF, 0x89, 0xAE, 0x3E, 0x3F, 0xA0, 0x72, 0x3E, 0x43, 0xB1,
  0x11, 0x3E, 0xF9, 0x84, 0x2A, 0x3E, 0x39, 0xA8, 0xE9, 0x3E,
  0xB4, 0x20, 0x95, 0x3C, 0x36, 0x70, 0x9F, 0x3D, 0x25, 0xE4,
  0xA8, 0x3F, 0x54, 0x66, 0x71, 0x3F, 0xA3, 0x5E, 0xB4, 0x3E,
  0x87, 0x5D, 0xC7, 0x3E, 0x90, 0xF1, 0x85, 0x3E, 0xB2, 0x93,
  0x7E, 0x3E, 0xBF, 0x99, 0x90, 0x3E, 0xAC, 0x63, 0xA1, 0x3E,
  0x9C, 0xFF, 0x8F, 0x3E, 0xF0, 0xD1, 0x9B, 0x3E, 0x22, 0x85,
  0xA4, 0x3E, 0x17, 0x1D, 0xA6, 0x3E, 0x12, 0x3F, 0x8C, 0x3E,
  0x2C, 0x5C, 0xA8, 0x3E, 0x7E, 0x81, 0x96, 0x3E, 0xEA, 0xEA,
  0x5F, 0x3E, 0x60, 0x21, 0x8D, 0x3E, 0xE2, 0x13, 0x47, 0x3E,
  0xCA, 0x50, 0xA0, 0x3E, 0xB6, 0x2D, 0x8E, 0x3E, 0xFA, 0xA1,
  0x98, 0x3E, 0xC6, 0x66, 0x89, 0x3D, 0xA5, 0xC2, 0x56, 0x3E,
  0x55, 0x3B, 0xD4, 0x3A, 0xF7, 0x72, 0x90, 0xBC, 0x82, 0x17,
  0x38, 0xBD, 0xA8, 0xBE, 0x57, 0xBD, 0x20, 0xD7, 0x12, 0x3C,
  0x1C, 0x4E, 0x21, 0x3F, 0xD1, 0xEF, 0xCB, 0x3E, 0xC0, 0x38,
  0x5C, 0xBD, 0x89, 0x1A, 0xC6, 0x3D, 0x14, 0x3F, 0x77, 0x3E,
  0xD9, 0xB0, 0x86, 0x3E, 0x85, 0xD7, 0xBF, 0x3E, 0xA7, 0x44,
  0xC3, 0x3E, 0xEA, 0x55, 0x82, 0x3E, 0x73, 0x8D, 0x97, 0x3E,
  0xC8, 0x90, 0x65, 0x3E, 0x32, 0xBF, 0x7C, 0x3E, 0x5D, 0xA7,
  0x9E, 0x3E, 0xFD, 0x03, 0xD9, 0x3D, 0x92, 0xF8, 0x27, 0x3E,
  0x24, 0x48, 0x32, 0x3E, 0xC9, 0xB2, 0xCA, 0x3D, 0x91, 0xCB,
  0xEC, 0x3C, 0x82, 0x24, 0x10, 0xBE, 0xF1, 0x2C, 0x1B, 0x3E,
  0x33, 0x5F, 0x31, 0x3C, 0xDD, 0xC7, 0xE4, 0xBD, 0xB5, 0x38,
  0x99, 0x3E, 0xDC, 0x72, 0x60, 0xBD, 0x7E, 0x3D, 0xDF, 0x3D,
  0xDF, 0xE3, 0x70, 0x3E, 0x3E, 0x97, 0x09, 0x3D, 0x10, 0x2B,
  0xAA, 0xBD, 0xF5, 0xE7, 0x22, 0xBE, 0xE2, 0x6E, 0x79, 0x3D,
  0xD4, 0xB8, 0x78, 0x3E, 0x7B, 0x57, 0x4B, 0x3E, 0xDE, 0xFC,
  0x4D, 0x3E, 0x5A, 0xB7, 0x5D, 0xBB, 0xB1, 0x8E, 0x0D, 0x3E,
  0xEA, 0xDD, 0xC7, 0x3C, 0x47, 0xBA, 0x89, 0x3D, 0xC6, 0x7F,
  0xC9, 0x3D, 0xF3, 0x15, 0x49, 0x3D, 0xC1, 0xC4, 0xF9, 0x3D,
  0x34, 0x6D, 0x61, 0x3E, 0x81, 0xF3, 0x4B, 0x3E, 0x41, 0x66,
  0x64, 0x3E, 0x65, 0x00, 0x88, 0x3E, 0x47, 0xAE, 0x9C, 0x3D,
  0xCD, 0x27, 0x7B, 0x3E, 0x51, 0xFB, 0x16, 0x3E, 0x78, 0x63,
  0x7F, 0x3D, 0x3E, 0x17, 0x27, 0x3D, 0x44, 0x9B, 0xE9, 0xBD,
  0x2B, 0x90, 0x19, 0x3E, 0xE5, 0x70, 0x04, 0xBE, 0xB0, 0xBC,
  0xCE, 0x3E, 0x5E, 0x25, 0x09, 0x3F, 0x60, 0x5E, 0x8E, 0x3D,
  0x9A, 0xD2, 0x0F, 0x3D, 0x84, 0x37, 0x1C, 0xBF, 0x90, 0xB6,
  0x9D, 0xBE, 0x36, 0x8C, 0x9A, 0x3D, 0x6E, 0x6E, 0xC4, 0x3E,
  0x78, 0x4D, 0x03, 0x3F, 0x2C, 0xC2, 0x0F, 0x3F, 0x2D, 0xBC,
  0x1C, 0x3F, 0x8F, 0x1B, 0xDD, 0x3E, 0xAA, 0x5F, 0xC8, 0x3E,
  0x9F, 0x38, 0xD9, 0x3E, 0x57, 0x8F, 0xAF, 0x3E, 0x56, 0xEA,
  0x43, 0xBE, 0x6C, 0x44, 0xBC, 0xBE, 0x21, 0x56, 0xB4, 0xBE,
  0x75, 0xBF, 0x2A, 0xBE, 0x79, 0x90, 0x67, 0xBE, 0x59, 0xB4,
  0x2A, 0x3E, 0x7F, 0xBC, 0x30, 0x3F, 0xB1, 0x50, 0x0C, 0x3F,
  0x08, 0x2A, 0xA2, 0xBE, 0x90, 0x75, 0xE6, 0xBE, 0x85, 0x62,
  0x93, 0x3D, 0x68, 0x0F, 0xAD, 0x3E, 0x71, 0x8A, 0xBF, 0xBA,
  0x6C, 0xBD, 0xA4, 0x3E, 0xE5, 0xA1, 0xBE, 0x3C, 0x48, 0xCE,
  0x08, 0x3D, 0x1C, 0x15, 0x0A, 0xBD, 0x06, 0x3B, 0x8B, 0x3D,
  0x40, 0x0D, 0x0C, 0x3D, 0x26, 0x96, 0xA3, 0x3D, 0x35, 0x85,
  0x97, 0xBD, 0x94, 0x4C, 0x1D, 0x3D, 0x53, 0xA0, 0x9F, 0xBD,
  0x40, 0x72, 0xD0, 0x3A, 0x8A, 0x4F, 0x10, 0xBD, 0x9A, 0x30,
  0x84, 0xBD, 0x6C, 0x67, 0x77, 0xBD, 0x90, 0x20, 0xAF, 0x3C,
  0x19, 0x05, 0x0B, 0xBD, 0xB8, 0x89, 0x8D, 0x3D, 0x00, 0x16,
  0x87, 0xBA, 0x40, 0x04, 0xDC, 0x3A, 0x50, 0x5C, 0xC5, 0xBC,
  0xD4, 0x99, 0xB1, 0x3D, 0xD6, 0x1C, 0xA2, 0xBD, 0x43, 0x42,
  0x9E, 0xBD, 0xBD, 0x54, 0x50, 0xBD, 0xE8, 0x27, 0x6D, 0x3D,
  0xAE, 0x9F, 0x85, 0xBD, 0xDC, 0x94, 0x1B, 0xBD, 0x08, 0x40,
  0x4F, 0xBC, 0x76, 0xC4, 0xF9, 0xBC, 0x48, 0xA7, 0x4A, 0x3D,
  0x00, 0x1F, 0xC9, 0xBC, 0x48, 0x3A, 0xD5, 0x3C, 0xCA, 0xAC,
  0x14, 0x3D, 0xB4, 0x18, 0x73, 0x3D, 0x1C, 0x32, 0x94, 0x3D,
  0xB0, 0x08, 0x2F, 0x3D, 0x1C, 0xCD, 0xAC, 0xBD, 0x8B, 0x1F,
  0x88, 0xBD, 0x6C, 0x61, 0x88, 0xBC, 0xD6, 0x7D, 0xA7, 0x3D,
  0xDA, 0xA8, 0x81, 0x3D, 0x60, 0x1E, 0xD2, 0x3B, 0x10, 0xFF,
  0x98, 0x3C, 0x50, 0x7C, 0x9C, 0xBB, 0x68, 0x37, 0x03, 0xBC,
  0x5C, 0xD4, 0xA4, 0x3D, 0x8C, 0x26, 0xF8, 0x3C, 0x9E, 0x93,
  0x11, 0x3D, 0x10, 0xF3, 0x4A, 0xBC, 0x0B, 0xE3, 0x8F, 0xBD,
  0xF0, 0x2B, 0xD8, 0xBB, 0x48, 0x90, 0x8A, 0xBC, 0xBC, 0x17,
  0xF5, 0x3C, 0x58, 0xC6, 0x75, 0x3D, 0x1C, 0x48, 0x0C, 0x3D,
  0xD8, 0x3A, 0x9A, 0xBD, 0x5A, 0x33, 0xAA, 0xBD, 0xDE, 0xBD,
  0x98, 0x3D, 0xA4, 0x47, 0x5F, 0x3D, 0xAE, 0x5E, 0xA0, 0x3D,
  0x08, 0x77, 0x16, 0x3C, 0x51, 0x9A, 0x62, 0xBD, 0x1F, 0xA2,
  0xAB, 0xBE, 0xF2, 0x5C, 0xA5, 0xBE, 0xCB, 0xCE, 0x00, 0xBE,
  0xFE, 0x21, 0xA6, 0xBE, 0xDF, 0xA2, 0xA5, 0x3D, 0x9A, 0x15,
  0x62, 0xBE, 0x4A, 0xAF, 0x27, 0xBE, 0x1B, 0x51, 0x9B, 0xBE,
  0x8C, 0x7B, 0x37, 0xBD, 0x85, 0x2F, 0xD7, 0x3C, 0x52, 0x58,
  0xF8, 0x3E, 0x30, 0xA2, 0x8A, 0x3F, 0xFB, 0x08, 0x78, 0x3F,
  0x80, 0x31, 0x09, 0x3F, 0x97, 0x9E, 0xC5, 0xBC, 0xCD, 0x02,
  0x2C, 0xBB, 0x7C, 0x84, 0xA1, 0x3D, 0x8E, 0xE9, 0xA8, 0x3E,
  0xC0, 0xE8, 0x8F, 0xBE, 0x1E, 0xB3, 0x50, 0xBE, 0x0C, 0xD5,
  0x0A, 0xBC, 0xF4, 0x2C, 0x0C, 0x3F, 0x41, 0xD6, 0x71, 0x3F,
  0x3D, 0x9D, 0x76, 0x3F, 0xF2, 0x63, 0xF2, 0xBC, 0x60, 0xA2,
  0x11, 0x3C, 0x84, 0x57, 0x05, 0xBE, 0x71, 0x99, 0x86, 0xBB,
  0x18, 0x93, 0xBA, 0xBE, 0x2E, 0xD8, 0xD3, 0xBE, 0x74, 0xBF,
  0xD3, 0xBE, 0xD0, 0x9C, 0xE8, 0xBE, 0x85, 0xBE, 0x2F, 0x3D,
  0xE9, 0x6D, 0x86, 0xBD, 0x54, 0x48, 0xB7, 0xBC, 0xC2, 0xEB,
  0x22, 0x3D, 0x9C, 0xC8, 0x11, 0x3E, 0x79, 0xA4, 0x22, 0x3E,
  0x64, 0x1F, 0xB9, 0x3E, 0x5E, 0xB4, 0x1B, 0x3F, 0xA1, 0x70,
  0xD1, 0x3E, 0xA8, 0x5B, 0xF8, 0x3E, 0xE3, 0x80, 0xB1, 0x3E,
  0x60, 0x52, 0xAF, 0x3E, 0x95, 0x5C, 0x77, 0x3E, 0x9E, 0xB8,
  0x84, 0x3E, 0xE7, 0x15, 0x4C, 0x3D, 0xAC, 0xEB, 0x89, 0x3E,
  0x99, 0x4A, 0x7E, 0x3E, 0x9F, 0x9F, 0x24, 0x3F, 0x78, 0xA0,
  0x92, 0x3F, 0x38, 0xC6, 0x91, 0x3F, 0x18, 0x87, 0x4C, 0x3D,
  0xAC, 0xCB, 0x48, 0x3D, 0x6C, 0x5E, 0xEF, 0xBE, 0x52, 0x8A,
  0xBF, 0xBE, 0x0C, 0x31, 0x12, 0xBE, 0x14, 0xB8, 0x8B, 0xBD,
  0x0B, 0x7A, 0x6A, 0x3C, 0x86, 0x31, 0x9E, 0x3D, 0x02, 0x69,
  0x14, 0x3E, 0x96, 0x9B, 0xC3, 0x3C, 0xB8, 0xDB, 0x55, 0x3D,
  0x7C, 0xB7, 0xFF, 0x3D, 0xDE, 0x6E, 0x46, 0x3E, 0xE5, 0xAC,
  0x99, 0x3E, 0x7E, 0x2C, 0x75, 0x3E, 0xA4, 0x5D, 0x90, 0x3E,
  0x27, 0xAE, 0x96, 0x3E, 0xE0, 0xE4, 0xB3, 0x3E, 0x92, 0x92,
  0x64, 0x3E, 0xCF, 0x52, 0xF5, 0x3D, 0xA4, 0xF2, 0x9A, 0x3D,
  0xD1, 0x14, 0x65, 0xBD, 0xAA, 0xC4, 0x43, 0x3D, 0x1F, 0x24,
  0x7E, 0x3C, 0xA8, 0x0F, 0xF9, 0x3D, 0x52, 0x14, 0x13, 0x3E,
  0x7E, 0x3A, 0x0B, 0x3F, 0xFD, 0xF0, 0x67, 0x3F, 0x98, 0x12,
  0xAF, 0x3D, 0xE6, 0xDB, 0x04, 0x3E, 0x1F, 0xE5, 0x94, 0x3E,
  0xBD, 0x7A, 0x21, 0xBE, 0xC3, 0x0B, 0x1F, 0x3E, 0x88, 0x48,
  0xB9, 0x3D, 0xAA, 0x5E, 0x78, 0x3D, 0xFB, 0x55, 0x03, 0x3E,
  0x50, 0xA2, 0x3A, 0xBD, 0x52, 0x71, 0xBD, 0x3D, 0xDC, 0xC6,
  0x40, 0xBD, 0x1C, 0xD2, 0xFE, 0x3D, 0x8B, 0x1F, 0xB1, 0x3B,
  0x5B, 0xE0, 0x88, 0x3D, 0xC1, 0xFB, 0x4D, 0x3E, 0x52, 0x5D,
  0x2E, 0x3E, 0x6A, 0x46, 0xFF, 0x3D, 0x28, 0xA8, 0x0B, 0x3E,
  0x6B, 0xE0, 0x95, 0x3D, 0x80, 0x1D, 0x50, 0x3D, 0x49, 0x47,
  0x06, 0x3E, 0x47, 0x9E, 0x24, 0xBD, 0xD9, 0x33, 0xD9, 0x3D,
  0x2E, 0x18, 0x32, 0xBD, 0x6A, 0xEB, 0xE1, 0x39, 0xD9, 0xC9,
  0x91, 0x3E, 0xE8, 0x78, 0x31, 0x3F, 0xBC, 0xF2, 0x84, 0x3F,
  0x24, 0x0E, 0x50, 0x3D, 0x2A, 0xC7, 0x1B, 0x3E, 0xED, 0x42,
  0x69, 0x3E, 0xA8, 0x7A, 0x42, 0xBE, 0xA3, 0xC9, 0x45, 0x3D,
  0xC6, 0x85, 0x6E, 0x3E, 0x35, 0x4C, 0x2F, 0x3E, 0x9E, 0xD4,
  0xDC, 0xBB, 0xF1, 0xF3, 0x33, 0x3E, 0x47, 0x5A, 0xF5, 0x3D,
  0xD2, 0x33, 0x1C, 0x3C, 0x80, 0xC6, 0x8C, 0xBD, 0x88, 0xAE,
  0x95, 0xBC, 0xBD, 0x71, 0xB1, 0x3D, 0x09, 0x71, 0x33, 0x3E,
  0xBD, 0xAC, 0x1E, 0x3E, 0x17, 0xE8, 0x69, 0x3D, 0xFD, 0x34,
  0x2B, 0xBD, 0x2E, 0x4E, 0x24, 0xBD, 0x1F, 0x52, 0xE8, 0xBB,
  0xC5, 0x38, 0xF8, 0x3D, 0xDA, 0x10, 0x3A, 0x3D, 0x3D, 0x08,
  0x39, 0x3E, 0xB8, 0x53, 0x4A, 0x3E, 0x88, 0x45, 0x23, 0xBD,
  0xAB, 0x5D, 0xA1, 0x3E, 0xFC, 0xD1, 0x23, 0x3F, 0xDF, 0x14,
  0x47, 0x3F, 0x10, 0x37, 0x90, 0xBD, 0x2C, 0xA8, 0x77, 0x3E,
  0x1E, 0xCD, 0x13, 0x3F, 0xF6, 0x10, 0xFB, 0x3D, 0xFD, 0xCF,
  0x7E, 0x3D, 0x21, 0xC2, 0x87, 0x3E, 0xC5, 0x9C, 0x70, 0x3E,
  0xF4, 0x40, 0x49, 0x3D, 0xB0, 0x42, 0x67, 0x3E, 0x85, 0xEF,
  0xD4, 0x3D, 0xE9, 0x54, 0x9E, 0x3D, 0xF0, 0xCA, 0x80, 0x3D,
  0xA2, 0xF9, 0xC3, 0x3D, 0xF7, 0xE5, 0xA0, 0x3D, 0x98, 0xB7,
  0x0A, 0x3E, 0x84, 0xDD, 0xA9, 0x3D, 0x53, 0xB8, 0x06, 0x3D,
  0xC2, 0x5E, 0x03, 0x3E, 0x9A, 0x0C, 0xCB, 0x3D, 0x8C, 0x1D,
  0x09, 0x3E, 0x62, 0xCD, 0x73, 0x3E, 0x38, 0x0F, 0x04, 0x3E,
  0x9E, 0xB0, 0x1E, 0x3E, 0xDB, 0x74, 0xBC, 0x3D, 0xCF, 0xD5,
  0x85, 0x3D, 0xCD, 0x01, 0xBE, 0x3E, 0x69, 0xDE, 0x3A, 0x3F,
  0x4D, 0x96, 0x47, 0x3F, 0x29, 0x3F, 0x48, 0x3E, 0xE4, 0x8F,
  0xC3, 0x3E, 0x0E, 0x67, 0x59, 0xBE, 0xA7, 0x19, 0xA6, 0xBE,
  0xC6, 0xDD, 0x57, 0x3D, 0xCC, 0x87, 0x8A, 0x3D, 0x6F, 0xBD,
  0x83, 0x3D, 0xEF, 0xE2, 0x0F, 0x3E, 0x77, 0xB5, 0xBC, 0x3D,
  0xB4, 0x68, 0x2C, 0x3E, 0x0D, 0x0C, 0x56, 0x3E, 0xEC, 0x86,
  0x62, 0x3D, 0xE6, 0xFE, 0xC9, 0xBC, 0xCD, 0x1B, 0xBF, 0xBD,
  0xB9, 0x92, 0x10, 0xBE, 0x97, 0x8C, 0x91, 0xBB, 0xB9, 0x8F,
  0x62, 0xBD, 0x93, 0x3C, 0x9F, 0x3D, 0xBF, 0x25, 0xC0, 0x3D,
  0xAF, 0xCB, 0xEC, 0x3D, 0xA9, 0x78, 0x80, 0x3D, 0xB2, 0x15,
  0x83, 0x3E, 0xBE, 0xBC, 0xA8, 0x3E, 0xDE, 0x44, 0x6F, 0x3E,
  0x70, 0x81, 0x76, 0x3E, 0x29, 0x7E, 0xE7, 0x3E, 0x55, 0xFA,
  0x71, 0x3F, 0xCE, 0x2E, 0x55, 0x3F, 0xC6, 0x59, 0x68, 0x3C,
  0xD3, 0x99, 0xC1, 0x3E, 0xED, 0x7E, 0xBD, 0x3D, 0x80, 0xF4,
  0xDD, 0xBD, 0x60, 0x7B, 0x02, 0x3E, 0xF0, 0x1A, 0xE4, 0xBC,
  0x44, 0xB8, 0x32, 0xBA, 0xFE, 0x35, 0x19, 0x3E, 0x67, 0x2B,
  0x11, 0x3E, 0xA7, 0x28, 0x31, 0x3E, 0x29, 0x2B, 0x78, 0x3E,
  0x5D, 0xBC, 0x67, 0x3B, 0x74, 0xF7, 0xC3, 0x3C, 0x80, 0xA8,
  0x49, 0xBC, 0x4E, 0xE9, 0xA2, 0xBD, 0xC4, 0xFE, 0xFA, 0xBD,
  0xE6, 0xD7, 0x85, 0xBD, 0x5E, 0x81, 0xA6, 0xBC, 0x1A, 0xD5,
  0x19, 0x3D, 0xD3, 0x53, 0xBC, 0x3D, 0x7D, 0xE4, 0x5A, 0x3D,
  0x5D, 0x0E, 0x2D, 0x3E, 0x15, 0x65, 0x8B, 0x3E, 0x49, 0xC4,
  0x81, 0x3E, 0x7A, 0x03, 0x76, 0x3E, 0x90, 0x62, 0xD2, 0x3E,
  0xC4, 0xF7, 0x26, 0x3F, 0x70, 0xA4, 0x82, 0x3E, 0x39, 0xF9,
  0xF8, 0xBD, 0x89, 0x89, 0x7B, 0xBB, 0xD1, 0x95, 0x89, 0x3E,
  0x4F, 0x80, 0x28, 0x3E, 0xB1, 0xF1, 0x3D, 0xBD, 0x39, 0x1A,
  0x00, 0x3E, 0x96, 0x52, 0x1C, 0x3E, 0xEA, 0x74, 0x2F, 0xBD,
  0xFF, 0x41, 0x0E, 0x3E, 0x26, 0xBD, 0xA7, 0x3D, 0x5A, 0x83,
  0x3A, 0x3E, 0xB9, 0x52, 0xBB, 0x3D, 0xC8, 0x00, 0x8B, 0x3E,
  0xE6, 0x69, 0x5B, 0x3E, 0xF3, 0xCB, 0x0E, 0x3E, 0x9F, 0x23,
  0x0E, 0x3E, 0xD6, 0x0A, 0xCB, 0xBB, 0x3C, 0xE1, 0x8B, 0xBD,
  0x70, 0x0A, 0xEC, 0xBD, 0xE5, 0x6E, 0xC1, 0xBC, 0x4A, 0x1D,
  0x09, 0xBE, 0x22, 0x38, 0x77, 0xBD, 0xEE, 0xFB, 0x27, 0xBE,
  0xAD, 0x9C, 0x19, 0x3D, 0x2A, 0x8D, 0x73, 0x3E, 0x7B, 0x7C,
  0xB6, 0x3E, 0x3D, 0x42, 0x94, 0x3E, 0xF5, 0x71, 0x02, 0xBF,
  0x33, 0x00, 0x9E, 0xBE, 0x66, 0xB7, 0x06, 0xBE, 0xDD, 0x7C,
  0xA7, 0x3E, 0x95, 0xD2, 0x05, 0x3D, 0xE3, 0xF9, 0xF9, 0x3C,
  0xB8, 0x42, 0xD9, 0x3C, 0x0B, 0x57, 0xAC, 0xBD, 0xF3, 0xB6,
  0x49, 0xBD, 0x29, 0xCC, 0x00, 0x3E, 0xE4, 0xF5, 0x06, 0x3E,
  0x75, 0xA4, 0x32, 0x3E, 0x30, 0x80, 0x53, 0x3E, 0xA0, 0x53,
  0x9F, 0x3E, 0x7A, 0x90, 0x8B, 0x3E, 0x5E, 0x2D, 0xCC, 0x3E,
  0xCD, 0xCF, 0x0A, 0x3F, 0x6A, 0x10, 0x63, 0x3E, 0x15, 0x2B,
  0x39, 0x3E, 0x82, 0x0A, 0xAB, 0x3E, 0xAE, 0x91, 0x33, 0x3E,
  0xFC, 0xFF, 0x2D, 0x3E, 0xCF, 0xC2, 0x2F, 0x3E, 0x9B, 0x75,
  0x33, 0x3D, 0x41, 0x3F, 0x02, 0x3D, 0xE6, 0xBD, 0x14, 0x3E,
  0x24, 0x5D, 0xD8, 0x3D, 0x8A, 0x13, 0x8F, 0xBD, 0xAB, 0x81,
  0x5C, 0xBF, 0xF2, 0x8E, 0x02, 0x3D, 0x10, 0xFE, 0xD6, 0xBD,
  0xD7, 0xF3, 0x34, 0x3E, 0x22, 0x8B, 0xB3, 0xBC, 0x1F, 0x9D,
  0xC3, 0xBD, 0xCE, 0x62, 0xEC, 0xBC, 0x74, 0xBC, 0xB6, 0x3C,
  0x74, 0x73, 0xEB, 0x3C, 0x63, 0xDD, 0xEB, 0x3D, 0x17, 0xF5,
  0x80, 0x3E, 0xB2, 0x16, 0xAA, 0x3E, 0x59, 0x5A, 0xA6, 0x3E,
  0x05, 0xCA, 0x31, 0x3E, 0x26, 0x23, 0x91, 0x3E, 0x23, 0xFA,
  0xE7, 0x3E, 0xD4, 0xE8, 0x09, 0x3F, 0x01, 0xDD, 0xD5, 0x3E,
  0xE0, 0x7A, 0xDE, 0x3E, 0x5B, 0x50, 0xDF, 0x3E, 0xA2, 0xD8,
  0x7F, 0x3E, 0x41, 0x10, 0xD2, 0x3E, 0x4C, 0x44, 0x00, 0x3E,
  0x61, 0x6F, 0x45, 0x3E, 0x06, 0xBE, 0x21, 0x3E, 0x22, 0x2C,
  0xE1, 0xBD, 0x19, 0x4C, 0x38, 0xBF, 0x7A, 0x18, 0xA7, 0xBF,
  0x5D, 0xB2, 0xBA, 0xBF, 0xB4, 0x2C, 0xA3, 0x3D, 0x4B, 0xED,
  0x25, 0xBD, 0xAA, 0x2A, 0x0A, 0x3E, 0x66, 0x1C, 0x4B, 0x3E,
  0x42, 0xE4, 0x9B, 0x3E, 0x1D, 0xF6, 0x73, 0x3E, 0xAE, 0xDA,
  0xBE, 0x3E, 0xC4, 0x1A, 0x84, 0x3E, 0x6E, 0x70, 0xC9, 0x3E,
  0x01, 0x78, 0xA7, 0x3E, 0x69, 0xB7, 0xC6, 0x3E, 0xB6, 0xC1,
  0x96, 0x3E, 0x5E, 0xFD, 0x75, 0x3E, 0x57, 0xFA, 0x69, 0x3E,
  0x5D, 0x6E, 0xEF, 0x3E, 0x1A, 0x86, 0xCD, 0x3E, 0x7B, 0x8E,
  0xF4, 0x3E, 0xF4, 0xC4, 0xC4, 0x3E, 0x42, 0xDC, 0xA9, 0x3E,
  0x84, 0x75, 0x9E, 0x3E, 0x15, 0x61, 0x55, 0x3E, 0xE3, 0x77,
  0x3E, 0x3E, 0xD1, 0x47, 0x4D, 0x3D, 0xE5, 0x5B, 0x95, 0xBE,
  0x04, 0x83, 0x3B, 0xBF, 0x53, 0x22, 0x97, 0xBF, 0x6C, 0xAE,
  0xD5, 0xBF, 0x2F, 0x44, 0xA3, 0xBF, 0x20, 0xEC, 0xED, 0xBB,
  0x56, 0xEA, 0x9D, 0x3D, 0x24, 0xBD, 0x0A, 0xBE, 0xC3, 0xE3,
  0xC0, 0x3E, 0xE3, 0x0F, 0xDE, 0x3E, 0xF6, 0xAF, 0xD1, 0x3E,
  0x85, 0xF6, 0xE8, 0x3E, 0xF9, 0x72, 0x8C, 0x3E, 0x16, 0x9E,
  0x43, 0x3E, 0x84, 0xC8, 0x8C, 0x3D, 0xE6, 0x82, 0xBE, 0x3D,
  0x5E, 0x09, 0x8D, 0x3D, 0x8B, 0x35, 0x6D, 0x3E, 0x98, 0x82,
  0x7A, 0x3E, 0x5E, 0xDF, 0xAA, 0x3E, 0x54, 0x1B, 0xDE, 0x3E,
  0x6F, 0x92, 0x85, 0x3E, 0x6B, 0x5F, 0x98, 0x3E, 0xED, 0x48,
  0x67, 0x3E, 0x5E, 0x3E, 0xF5, 0x3D, 0xD1, 0xBF, 0x8A, 0xBC,
  0xB5, 0x42, 0x01, 0xBE, 0xB0, 0xA4, 0xBC, 0xBE, 0xEA, 0xE8,
  0x1A, 0xBF, 0x85, 0x63, 0x41, 0xBF, 0xB5, 0x33, 0x13, 0xBF,
  0x57, 0x45, 0x4F, 0xBF, 0x5A, 0xB8, 0xA3, 0xBF, 0x1D, 0xEC,
  0x2E, 0xBD, 0xF8, 0xB0, 0x3B, 0x3D, 0x9A, 0x50, 0x09, 0x3B,
  0x0B, 0x18, 0xFD, 0x3E, 0x6D, 0x0D, 0xEB, 0x3E, 0x20, 0x16,
  0xD1, 0x3E, 0x7D, 0xCF, 0x40, 0x3E, 0x48, 0x7A, 0xDB, 0x3D,
  0xBA, 0x3C, 0x8A, 0x3D, 0x69, 0xA5, 0x10, 0xBB, 0xC2, 0x6D,
  0x60, 0xBC, 0xC9, 0xF6, 0x48, 0x3E, 0x61, 0x7B, 0x1A, 0x3E,
  0x6E, 0x1D, 0x77, 0x3E, 0x69, 0xC6, 0xA2, 0x3E, 0x88, 0xD8,
  0x99, 0x3E, 0xDD, 0x05, 0xB2, 0x3E, 0x1F, 0x46, 0x8A, 0x3E,
  0x17, 0x38, 0x99, 0x3E, 0xCE, 0xE9, 0x60, 0x3D, 0x5A, 0x31,
  0x9E, 0xBE, 0xFD, 0xC8, 0xB5, 0xBE, 0x36, 0xD2, 0xD4, 0xBE,
  0x7A, 0x88, 0xBD, 0xBE, 0x0C, 0x4D, 0x95, 0xBE, 0xCD, 0xB8,
  0x10, 0xBE, 0xAF, 0x18, 0x19, 0xBE, 0xC7, 0x27, 0x61, 0xBF,
  0x74, 0x2A, 0x8D, 0x3D, 0x16, 0xAA, 0xB7, 0x3E, 0xDF, 0x22,
  0x40, 0x3E, 0x34, 0x21, 0x45, 0x3E, 0xBD, 0xBC, 0x8B, 0xBD,
  0xCE, 0xDF, 0x97, 0xBE, 0xA3, 0x3B, 0xB2, 0xBE, 0x01, 0x2C,
  0x1C, 0xBE, 0x94, 0x81, 0xFD, 0xBD, 0x51, 0x21, 0xAB, 0xBC,
  0x81, 0xAC, 0x5F, 0xBC, 0xCB, 0xB3, 0xA4, 0x3D, 0xD5, 0x3E,
  0xAD, 0x3D, 0xC9, 0x3E, 0xDE, 0x3D, 0x99, 0x1D, 0x3A, 0x3E,
  0xDD, 0xBC, 0xFE, 0x3D, 0x84, 0x58, 0xA7, 0x3D, 0xFD, 0x69,
  0x1B, 0x3E, 0xD7, 0xD1, 0xE7, 0xBD, 0x8D, 0xB4, 0x09, 0xBE,
  0xCF, 0xC3, 0xB9, 0xBE, 0x28, 0x89, 0xE0, 0xBE, 0x31, 0xD4,
  0x2E, 0xBE, 0xD6, 0x0A, 0x35, 0xBE, 0x87, 0x70, 0xB8, 0x3C,
  0x8D, 0x17, 0x92, 0x3D, 0x9E, 0xC5, 0x58, 0xBE, 0x0E, 0xF3,
  0x70, 0xBF, 0x16, 0x4D, 0x87, 0x3D, 0x59, 0x39, 0xAC, 0x3E,
  0x53, 0xFA, 0x68, 0x3E, 0x5F, 0xBB, 0xE6, 0x3D, 0xCC, 0x93,
  0x3E, 0xBE, 0x36, 0x5E, 0xED, 0xBE, 0xDD, 0x5D, 0xD6, 0xBE,
  0x81, 0x3F, 0x54, 0xBE, 0xAD, 0x30, 0x0C, 0xBE, 0x8B, 0xFA,
  0x0A, 0xBD, 0x92, 0xA9, 0x28, 0x3E, 0x3D, 0xB9, 0x88, 0x3E,
  0xA3, 0x8A, 0x7D, 0x3E, 0xB0, 0x17, 0x1D, 0x3E, 0x39, 0xAC,
  0xA1, 0x3E, 0xEB, 0x58, 0xBD, 0x3E, 0xB3, 0x0A, 0x1A, 0x3E,
  0xDD, 0xF7, 0x1B, 0x3D, 0x08, 0xFA, 0x27, 0xBE, 0x8C, 0x2E,
  0xE7, 0xBE, 0x54, 0xA4, 0x81, 0xBE, 0x06, 0x9C, 0x07, 0xBE,
  0xB3, 0xC2, 0x89, 0xBC, 0x3F, 0xF1, 0x98, 0x3C, 0x7C, 0x66,
  0xED, 0x3C, 0x97, 0x5A, 0x7E, 0x3C, 0x95, 0x17, 0xC0, 0xBE,
  0x51, 0x34, 0x97, 0xBF, 0xE0, 0x02, 0xA1, 0xBC, 0x07, 0xD6,
  0xAE, 0x3D, 0x5C, 0xAB, 0xF3, 0xBE, 0x55, 0x06, 0x83, 0x3E,
  0xCF, 0x39, 0xC5, 0xBD, 0xC6, 0x80, 0xA8, 0xBE, 0x3F, 0x11,
  0x74, 0xBE, 0xBA, 0xA5, 0x4F, 0xBE, 0x99, 0x44, 0x90, 0xBE,
  0x0D, 0x89, 0xE6, 0xBD, 0xF5, 0x43, 0x85, 0x3D, 0x22, 0xF5,
  0x79, 0x3E, 0xF4, 0x87, 0x9E, 0x3E, 0x09, 0x2C, 0x80, 0x3E,
  0x2B, 0xF2, 0x71, 0x3E, 0x51, 0x83, 0x73, 0x3D, 0x12, 0xFE,
  0x46, 0xBE, 0x77, 0xAE, 0xEB, 0xBE, 0x40, 0x2E, 0xBA, 0xBE,
  0xDA, 0xBD, 0xA5, 0xBE, 0x49, 0x35, 0x76, 0xBE, 0x1B, 0xE4,
  0x45, 0xBD, 0x86, 0x10, 0xAB, 0xBC, 0xB3, 0xC5, 0x9E, 0xBD,
  0x8D, 0x3E, 0x4B, 0xBD, 0x86, 0x9A, 0x03, 0x3D, 0xB9, 0xA7,
  0xD5, 0xBE, 0x8B, 0x48, 0x05, 0xBF, 0x2C, 0xD6, 0x68, 0x3D,
  0x05, 0xC2, 0xA4, 0x3E, 0x33, 0xDB, 0xFA, 0xBD, 0x03, 0xE8,
  0x34, 0x3E, 0x70, 0xB8, 0x07, 0x3E, 0x41, 0x08, 0x42, 0x3D,
  0x52, 0x3F, 0xEB, 0xBD, 0x8B, 0xE9, 0x68, 0xBE, 0x25, 0x01,
  0x81, 0xBE, 0xED, 0x72, 0x9D, 0xBE, 0xD1, 0xA3, 0x77, 0xBE,
  0x5B, 0x4B, 0xBA, 0xBE, 0x39, 0x82, 0x77, 0xBE, 0x74, 0x7A,
  0x97, 0xBE, 0x34, 0xB6, 0xEE, 0xBE, 0x60, 0x9A, 0x03, 0xBF,
  0x1F, 0xC0, 0xE0, 0xBE, 0x96, 0x8E, 0xAE, 0xBE, 0x95, 0x44,
  0x28, 0xBE, 0xB7, 0x9B, 0x25, 0xBE, 0x04, 0x9A, 0x0D, 0xBE,
  0x9F, 0xB6, 0x46, 0xBE, 0xF7, 0x8D, 0x87, 0xBE, 0xAD, 0xD4,
  0x9C, 0xBE, 0x3B, 0xA0, 0x2D, 0xBE, 0xF8, 0x6A, 0xDE, 0xBD,
  0x33, 0x76, 0xBD, 0xBE, 0xF7, 0x04, 0xC4, 0xBE, 0x59, 0xD3,
  0x52, 0xBD, 0x36, 0x1F, 0x8F, 0x3E, 0x2B, 0xF5, 0x9F, 0x3E,
  0x8A, 0xBF, 0xAD, 0x3D, 0xF4, 0xB9, 0x5F, 0x3D, 0xD5, 0x0F,
  0x64, 0x3D, 0xA0, 0x9E, 0xB0, 0xBD, 0x82, 0x8B, 0x93, 0xBD,
  0x9F, 0x13, 0x1B, 0xBE, 0xF6, 0x05, 0x9C, 0xBE, 0x4E, 0x37,
  0x02, 0xBF, 0x22, 0x1A, 0x16, 0xBF, 0x59, 0xE3, 0x0F, 0xBF,
  0x84, 0xB3, 0xE5, 0xBE, 0xC6, 0x0A, 0xE0, 0xBE, 0xAD, 0xEB,
  0xC6, 0xBE, 0x17, 0x75, 0xB3, 0xBD, 0xB5, 0x2F, 0x86, 0xBE,
  0xEA, 0x1F, 0x21, 0xBE, 0x74, 0xFF, 0x3D, 0xBE, 0x0F, 0x15,
  0x09, 0xBE, 0x56, 0x7A, 0x54, 0xBE, 0x2A, 0xB9, 0x97, 0xBD,
  0xD5, 0x1A, 0x42, 0xBD, 0xCE, 0x55, 0x43, 0x3C, 0xF0, 0xF1,
  0xBA, 0xBB, 0xC2, 0xD6, 0x93, 0xBE, 0x2F, 0x7A, 0xA2, 0x3D,
  0x39, 0xC6, 0xBD, 0xBD, 0x54, 0x9D, 0xB5, 0x3E, 0x2F, 0x6E,
  0x4D, 0x3F, 0xDC, 0x32, 0x7A, 0x3E, 0x78, 0x9C, 0x9F, 0x3D,
  0xA4, 0x64, 0x89, 0x3D, 0x7A, 0xE7, 0x80, 0x3D, 0x64, 0x1C,
  0x65, 0xBC, 0xC7, 0x36, 0x23, 0x3B, 0x3D, 0x21, 0x39, 0xBE,
  0xA9, 0xA7, 0x30, 0xBE, 0x9C, 0x84, 0x89, 0xBE, 0x14, 0xAD,
  0x03, 0xBE, 0x29, 0x82, 0x73, 0xBD, 0xDE, 0xF5, 0xF0, 0xBD,
  0xFE, 0x31, 0xB7, 0xBD, 0x51, 0x85, 0x37, 0xBD, 0x75, 0x5B,
  0x0F, 0xBE, 0x30, 0xCF, 0xB2, 0xBD, 0x16, 0xB4, 0x3C, 0x3D,
  0x1D, 0xA6, 0x15, 0x3D, 0xC9, 0x3B, 0x0C, 0x3D, 0x68, 0x7C,
  0xE8, 0x3D, 0xE3, 0x29, 0xA4, 0x3C, 0x90, 0xD2, 0x77, 0x3D,
  0xB0, 0xE1, 0xEF, 0x3D, 0x5A, 0xCE, 0x81, 0x3E, 0x86, 0xDA,
  0x84, 0x3E, 0x1B, 0x8C, 0x0D, 0xBD, 0xFC, 0xEB, 0xCB, 0x3E,
  0xE1, 0x73, 0x70, 0x3F, 0x8C, 0xE6, 0xD5, 0x3E, 0x5D, 0x98,
  0xDD, 0x3D, 0xE4, 0x90, 0x77, 0x3D, 0x03, 0x96, 0x5E, 0x3C,
  0x65, 0x26, 0xCA, 0xBD, 0x33, 0x6D, 0x96, 0x3D, 0x16, 0x30,
  0x2D, 0xBE, 0xDC, 0x02, 0x05, 0xBE, 0x80, 0x87, 0xC9, 0xBC,
  0x09, 0x34, 0x68, 0xBD, 0xCA, 0x29, 0xDD, 0x3C, 0xFF, 0x7B,
  0x9C, 0xBD, 0x96, 0x3F, 0x82, 0xBD, 0x04, 0x60, 0x82, 0xBD,
  0xB8, 0x0B, 0xA1, 0x3D, 0x48, 0x65, 0x7A, 0xBD, 0x0C, 0xD0,
  0xAC, 0xBD, 0x70, 0x4E, 0xA7, 0xBD, 0xCD, 0xEB, 0x03, 0x3E,
  0x0B, 0xC7, 0x82, 0xBD, 0x89, 0xA9, 0x99, 0xBD, 0xB7, 0xCF,
  0x49, 0x3E, 0x0A, 0x3F, 0x4F, 0x3D, 0xFA, 0x70, 0x85, 0xBE,
  0x2F, 0x26, 0xD7, 0xBE, 0x44, 0x95, 0x64, 0x3D, 0x72, 0x17,
  0x91, 0x3E, 0x98, 0x1E, 0x01, 0x3F, 0x62, 0xD8, 0xD8, 0x3E,
  0x13, 0xAB, 0x1B, 0x3D, 0xBF, 0xAF, 0xDA, 0x3D, 0x7D, 0x35,
  0x5E, 0xBB, 0x5F, 0x41, 0xAC, 0xBD, 0x29, 0x58, 0x2D, 0xBE,
  0xBA, 0x49, 0x7B, 0xBE, 0xD2, 0x27, 0x5D, 0xBD, 0x2C, 0xD8,
  0x92, 0xBD, 0x45, 0xF5, 0x4D, 0xBD, 0xFD, 0x15, 0x83, 0xBD,
  0x2E, 0x60, 0xBD, 0xBD, 0x8D, 0x7D, 0x8C, 0xBD, 0x28, 0xAC,
  0x36, 0xBD, 0xE0, 0xD1, 0x97, 0xBE, 0x14, 0xE4, 0x2B, 0xBD,
  0x6E, 0x03, 0x14, 0xBE, 0xC3, 0x50, 0xD8, 0x3C, 0x34, 0x9C,
  0xD8, 0xBD, 0xCF, 0xA4, 0x64, 0xBE, 0x16, 0x54, 0x4E, 0x3B,
  0xFB, 0xA8, 0xFF, 0x3C, 0xFC, 0x98, 0x64, 0xBD, 0xBD, 0x4D,
  0xF9, 0x3D, 0xAD, 0x8F, 0x72, 0x3E, 0x10, 0xC2, 0xD0, 0xBB,
  0xC0, 0x22, 0x5B, 0x3C, 0x28, 0x39, 0xEA, 0x3C, 0x8B, 0xFF,
  0xCD, 0x3E, 0x91, 0xD1, 0x8C, 0x3C, 0x5E, 0x09, 0x26, 0x3D,
  0x56, 0x99, 0x4A, 0xBE, 0xD3, 0xD0, 0xC6, 0xBD, 0x28, 0x59,
  0xD1, 0xBC, 0x1D, 0xBE, 0x2B, 0xBD, 0x50, 0x59, 0xA3, 0x3D,
  0xBC, 0xD9, 0x48, 0xBD, 0x18, 0xD5, 0x9F, 0x3D, 0x34, 0x4D,
  0x6F, 0x3C, 0x2B, 0xDF, 0x06, 0x3E, 0xB5, 0x09, 0xF6, 0x3C,
  0xF4, 0x15, 0x1F, 0x3D, 0xE9, 0x82, 0x91, 0xBD, 0x57, 0x39,
  0xA1, 0x3B, 0x68, 0x2A, 0xAA, 0xBD, 0xD9, 0x28, 0xC7, 0xBD,
  0xC2, 0xE6, 0x68, 0xBE, 0xF4, 0xE0, 0x73, 0xBE, 0x95, 0x9C,
  0x17, 0xBE, 0xD9, 0xC0, 0x92, 0xBE, 0x10, 0xC0, 0xC0, 0xBB,
  0xCE, 0x19, 0x40, 0xBB, 0xD5, 0x6B, 0x81, 0x3E, 0xE7, 0xAE,
  0xB1, 0xBD, 0x2C, 0x65, 0xB7, 0xBC, 0xDE, 0xA8, 0x9B, 0x3E,
  0x1C, 0xDD, 0x62, 0x3D, 0x0D, 0xFC, 0x86, 0xBE, 0x01, 0xEF,
  0x71, 0xBE, 0x70, 0x8C, 0x12, 0xBE, 0xA8, 0x38, 0xFA, 0x3C,
  0xD3, 0x50, 0x68, 0xBD, 0x68, 0x4E, 0xDD, 0x3B, 0x28, 0xC0,
  0xAD, 0x3D, 0x86, 0xCD, 0x5E, 0xBD, 0x9B, 0x09, 0x86, 0xBD,
  0x85, 0xCC, 0x6C, 0xBD, 0x64, 0xF3, 0x16, 0x3C, 0x3F, 0x0D,
  0x8C, 0x3D, 0x45, 0xE8, 0x58, 0x3D, 0x10, 0x79, 0x4B, 0x3E,
  0x1C, 0xCF, 0x41, 0x3E, 0xDE, 0x5D, 0x12, 0x3D, 0x9B, 0x33,
  0x98, 0xBD, 0x36, 0xE2, 0x15, 0xBE, 0x1A, 0x85, 0x83, 0xBD,
  0xC5, 0xAF, 0xE2, 0x3C, 0xDA, 0xEE, 0x9B, 0xBE, 0x5C, 0x56,
  0x49, 0xBE, 0xA4, 0xFF, 0x74, 0xBE, 0x31, 0x32, 0x0E, 0xBE,
  0x78, 0x44, 0x96, 0x3C, 0x50, 0x0B, 0x7A, 0xBD, 0xAA, 0x44,
  0xBB, 0xBE, 0xC4, 0x95, 0x56, 0xBF, 0xE9, 0x6D, 0x43, 0xBF,
  0xA3, 0x0C, 0xB5, 0xBE, 0xF5, 0xE5, 0xE2, 0x3C, 0x91, 0x06,
  0x49, 0x3E, 0xA7, 0xC0, 0x85, 0x3E, 0xC1, 0xD4, 0x80, 0xBC,
  0x24, 0x06, 0xCE, 0xBC, 0x36, 0x27, 0x42, 0xBC, 0xF0, 0xBF,
  0x5E, 0xBD, 0x58, 0x57, 0x0F, 0xBE, 0x21, 0x0C, 0xA3, 0xBC,
  0x20, 0x26, 0x02, 0xBE, 0x05, 0xC8, 0x0A, 0xBE, 0x0B, 0x6D,
  0xA0, 0x3D, 0xA0, 0x1D, 0x26, 0x3E, 0xCF, 0xC1, 0x81, 0xBC,
  0x5B, 0x85, 0x69, 0x3E, 0xDE, 0xC1, 0x4C, 0x3E, 0x4A, 0x19,
  0x8C, 0x3E, 0x87, 0x1E, 0x04, 0x3E, 0xC1, 0xC2, 0x92, 0xBE,
  0xD7, 0x64, 0xB3, 0xBE, 0xFB, 0xEE, 0xB4, 0xBE, 0xD9, 0xFA,
  0xB3, 0xBE, 0x48, 0xE8, 0xCC, 0x3C, 0x97, 0xB5, 0xA0, 0xBD,
  0x87, 0xEA, 0xD2, 0xBE, 0x5E, 0x49, 0xAE, 0xBE, 0xE3, 0x87,
  0x64, 0xBF, 0x40, 0xAF, 0x4E, 0xBF, 0x70, 0x02, 0x0E, 0xBF,
  0x35, 0xD0, 0x9D, 0xBE, 0xB2, 0x9D, 0x7E, 0x3E, 0x1C, 0x00,
  0x46, 0x3E, 0xD8, 0x43, 0xC8, 0xBE, 0x80, 0xD7, 0xA3, 0xBD,
  0xED, 0xA9, 0xDB, 0xBC, 0x55, 0x88, 0xAF, 0x3D, 0xAA, 0xFC,
  0x20, 0xBD, 0x6A, 0x60, 0x0C, 0xBD, 0xAC, 0x6B, 0x20, 0x3C,
  0x98, 0x7B, 0xBB, 0xBD, 0xA8, 0xCA, 0xC9, 0x3E, 0xB2, 0xAD,
  0x97, 0x3E, 0x5E, 0x3A, 0x8A, 0x3D, 0xBC, 0xBD, 0xB6, 0x3E,
  0x0B, 0x14, 0x1A, 0x3F, 0x61, 0xBC, 0xA4, 0xBE, 0xC5, 0xF5,
  0xC6, 0xBE, 0x2B, 0xEF, 0xBB, 0xBE, 0xFA, 0x72, 0x6B, 0xBE,
  0xA3, 0x18, 0x15, 0x3D, 0x80, 0xF7, 0x0B, 0xBB, 0x60, 0xD9,
  0xAB, 0x3D, 0x3B, 0xDD, 0xA7, 0xBD, 0x3E, 0xA0, 0x84, 0xBD,
  0x72, 0x83, 0x8B, 0x3D, 0xBD, 0x6E, 0x74, 0xBD, 0xD8, 0x75,
  0x91, 0xBC, 0x1C, 0x48, 0x2E, 0xBD, 0x39, 0x7A, 0xA4, 0xBD,
  0x20, 0x64, 0xAC, 0xBC, 0xCB, 0x3D, 0xA4, 0xBD, 0xDC, 0x58,
  0xDB, 0x3C, 0xF0, 0x1F, 0xF4, 0xBB, 0x40, 0xC2, 0x40, 0x3B,
  0xEC, 0xF5, 0x07, 0xBD, 0x26, 0x3A, 0xA0, 0x3D, 0x98, 0xEE,
  0x2E, 0x3D, 0xAE, 0x31, 0x93, 0x3D, 0x37, 0x20, 0x8A, 0xBD,
  0x39, 0x6C, 0x7F, 0xBD, 0x28, 0x65, 0x1C, 0x3C, 0xF0, 0xDA,
  0xBF, 0x3C, 0xDD, 0xF2, 0x66, 0xBD, 0x60, 0x22, 0x9C, 0xBC,
  0xA8, 0xF7, 0x49, 0x3D, 0x52, 0x97, 0xA0, 0xBD, 0xA8, 0x97,
  0x74, 0x3D, 0xA9, 0x9C, 0x96, 0xBD, 0xCA, 0xE6, 0x84, 0xBD,
  0x8E, 0xA1, 0x8D, 0x3D, 0xF8, 0x4B, 0x90, 0x3D, 0x22, 0xC8,
  0x31, 0xBD, 0x60, 0x2D, 0x89, 0x3B, 0xF1, 0xF1, 0x3D, 0xBD,
  0x4C, 0xBB, 0x72, 0x3D, 0xDB, 0x0C, 0x9F, 0xBD, 0xA9, 0x88,
  0xA9, 0xBD, 0x80, 0xDB, 0x99, 0x3A, 0xF0, 0xEC, 0xA2, 0x3D,
  0xD4, 0x25, 0x87, 0x3D, 0xBE, 0x65, 0x4D, 0xBD, 0xEC, 0x2E,
  0x33, 0x3D, 0xA0, 0x61, 0xAC, 0xBD, 0x44, 0x98, 0x00, 0xBD,
  0x80, 0x2F, 0xDC, 0x3A, 0xD0, 0x1E, 0x95, 0xBD, 0xB0, 0xD0,
  0x39, 0xBD, 0x28, 0x15, 0xC3, 0xBC, 0xD2, 0xA1, 0x3C, 0xBD,
  0x88, 0x14, 0x45, 0x3C, 0xA8, 0xB9, 0x6F, 0x3D, 0x3A, 0xDD,
  0x99, 0x3D, 0x30, 0x1D, 0x46, 0x3C, 0xB4, 0x17, 0x66, 0x3D,
  0x00, 0xE8, 0xFE, 0x3A, 0x00, 0x51, 0xB8, 0xBB, 0xF6, 0x95,
  0x91, 0x3D, 0xDE, 0xD1, 0x84, 0xBD, 0xF0, 0xD6, 0x16, 0xBC,
  0xC2, 0x68, 0x6C, 0xBF, 0x6B, 0x7E, 0xEA, 0xBE, 0x25, 0xE5,
  0x1B, 0xBE, 0xFA, 0xE6, 0xDC, 0x3D, 0xD1, 0x48, 0x6E, 0x3E,
  0x7F, 0x07, 0xD9, 0xBD, 0x16, 0xC1, 0x18, 0xBE, 0x1A, 0x00,
  0xDE, 0xB9, 0x72, 0x16, 0x22, 0x3F, 0x6F, 0x60, 0x3D, 0x3F,
  0xCD, 0x29, 0x79, 0x3E, 0xA6, 0x99, 0x9B, 0x3E, 0x58, 0xB9,
  0x66, 0x3E, 0x80, 0x3D, 0xED, 0x3E, 0x14, 0x37, 0x45, 0x3F,
  0x92, 0xF5, 0x48, 0x3F, 0xC7, 0x8D, 0x03, 0x3F, 0xD3, 0x0B,
  0x38, 0x3F, 0xB9, 0x55, 0xF5, 0x3E, 0x55, 0x68, 0x40, 0x3F,
  0xCD, 0x2C, 0x3F, 0x3E, 0x34, 0xD0, 0xAF, 0x3F, 0x11, 0xF5,
  0xA7, 0x3F, 0x67, 0x81, 0xA5, 0x3F, 0xDD, 0xAC, 0x0C, 0x3F,
  0xF7, 0xBA, 0xAE, 0xBD, 0x30, 0x20, 0x84, 0xBD, 0xE1, 0x48,
  0x66, 0xBF, 0xAB, 0x6E, 0x4F, 0xBF, 0x38, 0xC1, 0x2B, 0xBC,
  0x2E, 0xBF, 0x35, 0x3E, 0xD5, 0x40, 0xD8, 0xBC, 0x3F, 0x91,
  0x2A, 0x3E, 0xAB, 0x32, 0x9E, 0x3B, 0x9F, 0xA6, 0x32, 0x3E,
  0xF8, 0x73, 0x9F, 0xBD, 0x1D, 0x6D, 0x04, 0x3E, 0xE2, 0xA1,
  0x43, 0x3D, 0xA5, 0x89, 0x5C, 0x3E, 0x34, 0x9A, 0x87, 0x3E,
  0xD6, 0x82, 0x34, 0x3E, 0x12, 0xCA, 0x8F, 0x3E, 0xAD, 0x6D,
  0x79, 0x3E, 0x1C, 0x07, 0x7A, 0x3D, 0xD8, 0xF9, 0x41, 0x3E,
  0xCE, 0x52, 0x01, 0x3E, 0x43, 0xD0, 0x3C, 0x3E, 0x2B, 0xBA,
  0x87, 0x3E, 0x7D, 0xFC, 0xB3, 0x3E, 0xBF, 0x3D, 0xD8, 0x3E,
  0x19, 0x0C, 0x30, 0x3F, 0xA9, 0xDB, 0x62, 0x3F, 0xC3, 0x82,
  0xAE, 0x3F, 0xFC, 0x75, 0x8C, 0x3D, 0x00, 0x3D, 0x32, 0x3D,
  0x22, 0x8D, 0x8F, 0xBC, 0x4E, 0x13, 0xC5, 0xBE, 0xAA, 0xF5,
  0x18, 0xBD, 0xF1, 0xC8, 0xBD, 0x3D, 0x99, 0x65, 0xAE, 0xBD,
  0x7B, 0xC6, 0x03, 0x3D, 0x7C, 0x73, 0xA2, 0x3D, 0x6E, 0x82,
  0xC1, 0x3C, 0x51, 0x03, 0xF8, 0xBC, 0xAC, 0x28, 0x30, 0x3D,
  0x39, 0xE1, 0x66, 0xBD, 0x06, 0x9F, 0xC7, 0x3D, 0x65, 0xEE,
  0x17, 0x3E, 0x5D, 0x67, 0x51, 0x3E, 0x1E, 0xCE, 0x50, 0x3E,
  0xD5, 0xBC, 0x3D, 0x3E, 0xBA, 0x47, 0x45, 0x3E, 0x8B, 0x1B,
  0x1B, 0x3E, 0xA7, 0x58, 0x9E, 0x3D, 0xEF, 0x92, 0x0C, 0x3E,
  0x85, 0x9C, 0x34, 0x3D, 0xF0, 0xAA, 0x3B, 0x3E, 0xB6, 0x94,
  0xF5, 0x3D, 0x34, 0xBB, 0xE5, 0x3E, 0xF1, 0x2D, 0x5A, 0x3F,
  0xD2, 0x61, 0x75, 0x3F, 0x81, 0x08, 0x09, 0xBD, 0x45, 0x3C,
  0xAD, 0xBE, 0x68, 0xFF, 0x4A, 0xBE, 0xF9, 0x37, 0x27, 0x3E,
  0x10, 0x03, 0xE2, 0xBD, 0x6A, 0x2D, 0xE4, 0x3D, 0xBB, 0xFD,
  0xA5, 0x3D, 0x0E, 0xCA, 0xCB, 0xB9, 0x32, 0xB6, 0xD8, 0xBD,
  0x04, 0x82, 0x0E, 0x3E, 0xEC, 0xC6, 0xDB, 0x3D, 0x4B, 0x46,
  0x3A, 0x3E, 0x14, 0xF1, 0xED, 0x3C, 0xF7, 0x34, 0x34, 0x3D,
  0x1B, 0x73, 0x1A, 0x3E, 0xFA, 0xE4, 0x96, 0x3D, 0x23, 0x49,
  0xE4, 0xBB, 0xA9, 0x5E, 0x96, 0x3D, 0xA1, 0x01, 0xA7, 0x3D,
  0x5B, 0x0A, 0x08, 0x3E, 0x03, 0x28, 0xA0, 0x3D, 0x4C, 0x1C,
  0x2D, 0xBD, 0xCD, 0xC7, 0xE0, 0x3D, 0x1A, 0xD2, 0x2C, 0x3D,
  0xB0, 0x6C, 0x29, 0x3E, 0x9E, 0x25, 0x75, 0x3E, 0xFF, 0xB9,
  0x9E, 0x3F, 0xBD, 0xCF, 0x8A, 0x3F, 0xCD, 0xBD, 0x8C, 0xBD,
  0x1D, 0xF3, 0xB8, 0xBE, 0x28, 0x14, 0x47, 0xBF, 0x51, 0x77,
  0x2A, 0xBE, 0xBA, 0xEF, 0x87, 0xBE, 0x19, 0x12, 0x59, 0x3D,
  0x0F, 0x07, 0x34, 0xBE, 0xAD, 0x05, 0x99, 0x3D, 0x46, 0xBC,
  0x46, 0xBE, 0xC9, 0x42, 0x80, 0xBB, 0x60, 0xC9, 0x34, 0x3A,
  0x55, 0xB2, 0xB3, 0xBD, 0x22, 0x17, 0x39, 0x3C, 0x04, 0x45,
  0x59, 0x3D, 0xF4, 0x7F, 0x93, 0x3C, 0xEE, 0xF3, 0x2E, 0xBD,
  0x27, 0x74, 0xFF, 0x3D, 0x7D, 0xD8, 0xDD, 0x3C, 0x59, 0x89,
  0x49, 0x3D, 0x1F, 0x6D, 0xBA, 0x3D, 0xD3, 0x6A, 0x53, 0x3D,
  0xF5, 0x8D, 0x10, 0x3D, 0xCE, 0xF4, 0x43, 0x3E, 0xAF, 0x3E,
  0xE3, 0x3D, 0x3A, 0x46, 0x60, 0xBC, 0xC1, 0x9A, 0x58, 0x3E,
  0x28, 0xF7, 0xA7, 0x3F, 0x61, 0x4A, 0x02, 0x40, 0x5E, 0xE8,
  0x4E, 0xBD, 0xB9, 0xFA, 0x5E, 0xBE, 0x62, 0x73, 0xCF, 0xBC,
  0x4F, 0x23, 0x09, 0x3E, 0x1F, 0x20, 0xCC, 0x3C, 0x69, 0x47,
  0x3F, 0xBD, 0x8C, 0x2D, 0xDF, 0xBC, 0xDE, 0x62, 0x49, 0x3E,
  0xE6, 0xBD, 0xAD, 0x3D, 0x2A, 0x81, 0xB4, 0x3D, 0x6E, 0x51,
  0xEC, 0x3B, 0x76, 0x4E, 0x76, 0x3D, 0x86, 0x78, 0x78, 0x3D,
  0x7E, 0xD9, 0x60, 0x3C, 0x99, 0x3B, 0xA8, 0x3D, 0x8F, 0x8E,
  0x57, 0xBC, 0x0D, 0xAC, 0x2C, 0x3E, 0x08, 0xBD, 0x08, 0x3D,
  0x0A, 0x7C, 0xC1, 0x3C, 0xED, 0x6B, 0x0F, 0x3E, 0x25, 0x38,
  0x02, 0x3E, 0x7D, 0xDF, 0xBF, 0x3D, 0xA7, 0xB0, 0x61, 0x3D,
  0x4D, 0x01, 0xE0, 0x3D, 0x2F, 0x9B, 0x70, 0x3C, 0x14, 0xC6,
  0xF1, 0x3E, 0x3B, 0x5E, 0xAA, 0x3F, 0x08, 0x2B, 0xE8, 0x3F,
  0x1E, 0x0F, 0x58, 0xBE, 0x02, 0x21, 0x85, 0xBE, 0xBE, 0x6D,
  0xF3, 0xBE, 0xD6, 0x1D, 0x57, 0xBD, 0x05, 0x43, 0xAA, 0xBB,
  0x2C, 0x2B, 0x47, 0xBE, 0xC8, 0xC3, 0x2A, 0xBE, 0xFE, 0x16,
  0xD0, 0xBD, 0xDF, 0xC8, 0xA1, 0xBD, 0xB5, 0xF5, 0xCC, 0xBC,
  0xF5, 0x5E, 0xA2, 0x3D, 0x8D, 0x38, 0x4B, 0xBD, 0xD8, 0xB9,
  0x6B, 0xBD, 0x68, 0xF4, 0xF8, 0xBD, 0x7E, 0x3E, 0x46, 0xBC,
  0x4E, 0x9C, 0x5D, 0x3D, 0x5E, 0x3A, 0x0D, 0x3D, 0x9A, 0x4F,
  0x4D, 0x3E, 0x78, 0xAC, 0x64, 0x3E, 0x14, 0xA5, 0x99, 0x3D,
  0x9D, 0x3E, 0x14, 0x3E, 0x8E, 0xFF, 0xB1, 0x3D, 0xF8, 0xE5,
  0xF9, 0x3D, 0x12, 0x89, 0x54, 0x3E, 0x64, 0x86, 0xC0, 0x3D,
  0x1C, 0xB6, 0x2E, 0x3F, 0x64, 0xF3, 0xFB, 0x3F, 0x6A, 0x56,
  0x3E, 0x40, 0x0F, 0xB7, 0xE1, 0x3C, 0xED, 0xD7, 0x86, 0xBE,
  0x87, 0x9C, 0xB1, 0xBE, 0xF1, 0x86, 0x3E, 0x3E, 0x35, 0x99,
  0xC8, 0x3C, 0x4C, 0x92, 0x11, 0xBC, 0x2D, 0xB1, 0xB4, 0xBD,
  0x6D, 0x08, 0x9D, 0xBD, 0xCE, 0x32, 0xB7, 0xBD, 0xE9, 0xD5,
  0xAD, 0x3D, 0x40, 0xA3, 0xC5, 0xBC, 0x0E, 0x7E, 0xB5, 0xBD,
  0x97, 0x99, 0x03, 0xBD, 0xDA, 0x73, 0x27, 0xBE, 0x53, 0x95,
  0x0F, 0xBE, 0xA6, 0xC8, 0x5E, 0x3C, 0xBE, 0xCC, 0x9F, 0x3C,
  0xE9, 0x36, 0x04, 0x3E, 0x41, 0xC8, 0x91, 0x3C, 0x16, 0x90,
  0x14, 0x3E, 0xA6, 0xB7, 0xBA, 0x3D, 0xA3, 0x54, 0x14, 0x3E,
  0x4B, 0x01, 0x9A, 0x3E, 0x54, 0xE6, 0x7B, 0x3E, 0x52, 0x90,
  0x4F, 0x3E, 0xB5, 0x9B, 0xF9, 0x3E, 0xC7, 0x0C, 0xE3, 0x3F,
  0x4A, 0xB5, 0xDE, 0x3F, 0xB8, 0x60, 0x30, 0x3E, 0xBA, 0xFF,
  0x47, 0xBE, 0xBD, 0x2D, 0xCD, 0xBE, 0x15, 0x3A, 0xC3, 0x3B,
  0x97, 0x06, 0x1B, 0x3E, 0xAF, 0x20, 0x90, 0x3D, 0x68, 0xA5,
  0xB9, 0xBC, 0x98, 0x82, 0xA5, 0xBC, 0x6D, 0x09, 0x74, 0xBB,
  0x2D, 0x18, 0xDE, 0xBB, 0xB0, 0x8D, 0x9C, 0x3D, 0xEC, 0xDF,
  0x0E, 0x3E, 0x86, 0x38, 0x4D, 0x3E, 0x47, 0xE1, 0x9C, 0x3E,
  0x18, 0x77, 0xDF, 0x3D, 0x87, 0x81, 0x9D, 0xBD, 0x45, 0x0B,
  0xAE, 0xBD, 0x9B, 0x66, 0xA9, 0xBD, 0xAF, 0xCA, 0x05, 0x3D,
  0xAE, 0xD4, 0x08, 0x3E, 0x9F, 0x3D, 0x90, 0x3C, 0xCB, 0x6B,
  0x1B, 0xBD, 0xC8, 0x24, 0x07, 0x3C, 0x79, 0x3E, 0x8C, 0x3D,
  0xCB, 0x7D, 0x08, 0x3D, 0x2C, 0xF9, 0xC8, 0xBD, 0x22, 0xB1,
  0x49, 0x3F, 0x4E, 0xD0, 0x56, 0x3F, 0x41, 0x4E, 0x45, 0x3E,
  0xF3, 0x1E, 0xD5, 0x3D, 0xAB, 0x73, 0x69, 0x3D, 0xAD, 0xF5,
  0x12, 0xBE, 0x66, 0x59, 0x6F, 0xBD, 0xBF, 0xD2, 0x05, 0xBE,
  0xDC, 0x0C, 0x23, 0xBD, 0xEB, 0x1A, 0x1C, 0x3D, 0xF2, 0x1F,
  0xED, 0x3D, 0x63, 0x67, 0x84, 0x3D, 0x33, 0x0B, 0x8D, 0x3E,
  0x4C, 0xEA, 0x53, 0x3E, 0xBC, 0xD2, 0xAE, 0x3E, 0xA4, 0xA1,
  0xB0, 0x3E, 0xC9, 0x9F, 0x3B, 0x3E, 0x5E, 0xD6, 0xFC, 0xBC,
  0xAE, 0x99, 0xB6, 0xBD, 0x21, 0xFE, 0x01, 0xBD, 0x2D, 0xD2,
  0xB9, 0xBD, 0xA0, 0x56, 0xBF, 0xBD, 0x76, 0x3B, 0xE9, 0xBD,
  0x41, 0x42, 0xF6, 0xBD, 0xB5, 0x0E, 0xE5, 0xBD, 0x99, 0x33,
  0xAA, 0xBE, 0xA5, 0xBA, 0xA9, 0xBE, 0xDE, 0x48, 0x0F, 0xBF,
  0xF7, 0x60, 0x05, 0xBF, 0x4D, 0x53, 0x4A, 0xBE, 0xD0, 0xDC,
  0x1C, 0x3C, 0x1C, 0xFB, 0x78, 0x3E, 0xF7, 0xC2, 0xA5, 0xBC,
  0x1F, 0x8C, 0x7D, 0x3B, 0xDB, 0x6C, 0x2C, 0x3D, 0x92, 0x8D,
  0xB2, 0x3D, 0x07, 0xE0, 0xB0, 0x3B, 0xF7, 0x3F, 0xD3, 0x3D,
  0x0B, 0x8F, 0x93, 0x3E, 0x4E, 0x8D, 0xB4, 0x3E, 0x56, 0x21,
  0xE8, 0x3E, 0xEC, 0x78, 0xC0, 0x3E, 0x29, 0x20, 0xCD, 0x3E,
  0xD6, 0x25, 0xB6, 0x3E, 0xA2, 0x2B, 0x31, 0x3E, 0x4D, 0x15,
  0x55, 0x3E, 0xA6, 0xB8, 0x08, 0x3D, 0x28, 0x2C, 0x7B, 0x3D,
  0x16, 0x11, 0xD0, 0x3D, 0x5C, 0xEC, 0x14, 0x3E, 0x43, 0x98,
  0xC0, 0xBB, 0x10, 0x0F, 0xA4, 0x3D, 0x38, 0xE0, 0x6A, 0xBD,
  0x45, 0x03, 0xB5, 0xBE, 0x16, 0x03, 0xA7, 0xBE, 0x47, 0x8D,
  0xC1, 0xBE, 0x27, 0x4C, 0x64, 0xBF, 0xBB, 0x45, 0x00, 0xBF,
  0x5E, 0x9A, 0x9F, 0xBD, 0x34, 0x21, 0xBC, 0x3C, 0x23, 0x0E,
  0xCE, 0xBD, 0x1F, 0xF4, 0x29, 0x3E, 0x90, 0x24, 0x0B, 0x3F,
  0x52, 0xDB, 0xE6, 0x3E, 0xC5, 0x07, 0x00, 0x3F, 0xE0, 0x85,
  0x0A, 0x3F, 0xA0, 0xF4, 0x05, 0x3F, 0x6F, 0x61, 0xF6, 0x3E,
  0xD9, 0xA5, 0x0C, 0x3F, 0xA5, 0x6D, 0xC6, 0x3E, 0x44, 0x22,
  0xC5, 0x3E, 0xBF, 0x2C, 0x9F, 0x3E, 0x37, 0x64, 0xF7, 0x3D,
  0xC8, 0x3C, 0x15, 0x3E, 0x6D, 0x80, 0x29, 0x3E, 0x8B, 0xB3,
  0xD6, 0x3D, 0x6F, 0x51, 0xA0, 0x3D, 0xB5, 0x90, 0xC1, 0x3C,
  0x0B, 0xAC, 0xB3, 0x3D, 0x88, 0x30, 0x67, 0xBC, 0x13, 0x23,
  0x02, 0xBD, 0xBD, 0x82, 0xDA, 0xBE, 0xFE, 0xE2, 0xC5, 0xBD,
  0x9D, 0xE0, 0xC6, 0xBD, 0xAB, 0x04, 0xCC, 0xBE, 0x15, 0xD1,
  0x16, 0xBF, 0xF0, 0x95, 0xAB, 0x3D, 0x74, 0x0D, 0x81, 0xBD,
  0x04, 0x65, 0x89, 0x3E, 0xF2, 0x61, 0x63, 0x3F, 0xC4, 0xBC,
  0x86, 0x3F, 0x93, 0x13, 0x73, 0x3F, 0xC1, 0xAB, 0x63, 0x3F,
  0xD8, 0x8D, 0x44, 0x3F, 0x5F, 0xFD, 0x07, 0x3F, 0x6C, 0xFF,
  0xC6, 0x3E, 0x35, 0xD9, 0x1B, 0x3E, 0xE7, 0x69, 0x94, 0x3E,
  0xFF, 0xAD, 0x76, 0x3E, 0xB9, 0xFF, 0x46, 0x3E, 0x48, 0x96,
  0xB0, 0x3D, 0x5B, 0x3F, 0x4B, 0x3D, 0xBC, 0x93, 0x4F, 0xBB,
  0x7C, 0x4C, 0x26, 0x3E, 0xD8, 0xEF, 0xA2, 0x3D, 0xFF, 0x7E,
  0xDA, 0x3D, 0xFE, 0xCE, 0xA7, 0xBD, 0x68, 0x4A, 0xAD, 0xBD,
  0x5D, 0xFC, 0x06, 0xBB, 0x69, 0x3D, 0xA9, 0xBD, 0xF3, 0x7A,
  0x7A, 0x3D, 0x22, 0x64, 0xF5, 0x3C, 0x4A, 0xBB, 0x24, 0xBF,
  0x41, 0x81, 0x12, 0xBF, 0xA7, 0xA7, 0x8A, 0xBD, 0x10, 0x09,
  0xAB, 0xBD, 0x89, 0x59, 0x84, 0x3F, 0xBF, 0x0B, 0x87, 0x3F,
  0x49, 0x86, 0x7E, 0x3F, 0x29, 0x91, 0x4D, 0x3F, 0xC3, 0x94,
  0xBE, 0x3E, 0x3B, 0xE4, 0xB8, 0x3E, 0x29, 0xAF, 0x74, 0x3D,
  0xE3, 0xD1, 0x0D, 0x3E, 0x45, 0xDF, 0x8A, 0x3D, 0x28, 0xEA,
  0xB8, 0x3D, 0x25, 0x42, 0x86, 0x3D, 0xA7, 0xC6, 0xAA, 0x3C,
  0xD6, 0x87, 0x7B, 0xBD, 0xE6, 0x3C, 0x52, 0xBE, 0x68, 0xD4,
  0x3A, 0xBD, 0x15, 0x34, 0x72, 0x3D, 0xCB, 0x52, 0xCB, 0xBB,
  0xD8, 0x99, 0x16, 0xBD, 0xF2, 0x84, 0xA6, 0xBD, 0xBD, 0xF7,
  0x02, 0xBE, 0x9F, 0x8A, 0x86, 0xBD, 0xEA, 0x26, 0x91, 0x3D,
  0xA8, 0xEF, 0xA6, 0x3E, 0xF6, 0xF4, 0x67, 0x3E, 0x12, 0x2E,
  0xF5, 0xBE, 0xB6, 0x7C, 0x1C, 0xBF, 0xE6, 0xC4, 0x81, 0x3D,
  0x67, 0xB0, 0x85, 0x3E, 0x49, 0x26, 0x37, 0xBD, 0xAF, 0xE8,
  0x12, 0x3F, 0xEC, 0xA7, 0x82, 0x3E, 0x5C, 0x5E, 0x66, 0xBE,
  0x5D, 0x26, 0x88, 0xBE, 0xA9, 0x2C, 0x7D, 0xBE, 0x78, 0xDF,
  0xBE, 0xBD, 0x76, 0x0E, 0xBB, 0xBD, 0xCE, 0x2B, 0x56, 0xBD,
  0x98, 0x14, 0xFA, 0x3D, 0xE7, 0x25, 0x7C, 0xBC, 0x44, 0x60,
  0x1D, 0xBD, 0x25, 0x63, 0x0F, 0xBE, 0x0A, 0xE0, 0x4F, 0xBD,
  0x31, 0xB7, 0xBA, 0xBC, 0x0B, 0xC7, 0x55, 0xBC, 0xA0, 0x6D,
  0x5C, 0xBD, 0x91, 0x87, 0xE9, 0x3D, 0x54, 0xA8, 0x9B, 0x3B,
  0x87, 0x02, 0x3A, 0x3E, 0x7F, 0x4B, 0x2F, 0x3E, 0x1C, 0xF9,
  0xA8, 0x3E, 0x8A, 0xD7, 0x87, 0x3E, 0x12, 0x0B, 0x0A, 0x3E,
  0xB9, 0x67, 0x15, 0xBF, 0x72, 0x9D, 0x1B, 0xBF, 0xD4, 0xB6,
  0x75, 0x3D, 0x2D, 0x4C, 0xB6, 0x3E, 0x5F, 0x1F, 0xAA, 0x3E,
  0x2A, 0x88, 0x0B, 0x3F, 0xC2, 0x25, 0x93, 0xBD, 0x5D, 0xD3,
  0x29, 0xBF, 0xF5, 0xED, 0x02, 0xBF, 0x5B, 0xD7, 0x43, 0xBE,
  0xAE, 0xC6, 0xFE, 0xBD, 0xEE, 0x36, 0x84, 0xBD, 0x02, 0x8C,
  0x02, 0xBE, 0x61, 0xBC, 0x18, 0x3C, 0x0B, 0x20, 0x4D, 0x3D,
  0x68, 0x96, 0x0B, 0xBE, 0x70, 0x96, 0xE8, 0xBD, 0x48, 0x21,
  0xB2, 0x3A, 0x8C, 0x70, 0xAC, 0xBD, 0x0D, 0xA0, 0x02, 0x3C,
  0xA1, 0xA7, 0xA4, 0xBC, 0x8B, 0x4E, 0x16, 0x3E, 0x00, 0x16,
  0xE2, 0x3D, 0x8D, 0x25, 0x75, 0x3E, 0x05, 0x1B, 0x28, 0x3E,
  0xB6, 0xC1, 0x45, 0x3E, 0x42, 0x0A, 0x1F, 0x3E, 0xDD, 0xD5,
  0x1D, 0xBE, 0xEA, 0x92, 0x0D, 0xBF, 0xF8, 0x9F, 0x7A, 0xBF,
  0x88, 0x89, 0x86, 0xBC, 0xBE, 0xA0, 0x4E, 0x3E, 0xC0, 0x4B,
  0xBB, 0xBC, 0xBB, 0x68, 0x30, 0x3F, 0xFA, 0xB5, 0x73, 0x3E,
  0x89, 0x01, 0xB9, 0xBE, 0xDA, 0x30, 0xF3, 0xBE, 0xB6, 0xB3,
  0xB2, 0xBE, 0x44, 0xB1, 0xBA, 0xBE, 0x75, 0x68, 0x74, 0xBE,
  0x0D, 0x1E, 0x13, 0xBE, 0xC1, 0x20, 0x56, 0xBE, 0x0F, 0xF0,
  0x63, 0xBE, 0x48, 0xD5, 0x95, 0xBE, 0xCA, 0x31, 0x46, 0xBE,
  0xDC, 0x6F, 0x32, 0xBE, 0x4A, 0x41, 0x28, 0xBE, 0x70, 0xF5,
  0x34, 0xBD, 0xA9, 0x81, 0xC8, 0x3C, 0xC8, 0xF0, 0xBE, 0x3D,
  0x92, 0xF6, 0x5A, 0x3E, 0x95, 0x18, 0x84, 0x3D, 0x41, 0xF7,
  0xAC, 0x3D, 0xDB, 0x47, 0xE8, 0x3C, 0x65, 0xB5, 0xD9, 0x3C,
  0x97, 0x97, 0x82, 0xBD, 0x3D, 0xD7, 0x84, 0xBD, 0x69, 0x8C,
  0x4A, 0xBF, 0xEA, 0x48, 0x8C, 0x3D, 0xF0, 0x99, 0x7E, 0xBD,
  0x6C, 0x16, 0x34, 0xBE, 0x27, 0xE1, 0x0B, 0x3F, 0x9E, 0x9F,
  0x05, 0x3F, 0xC6, 0x96, 0x38, 0xBE, 0x64, 0xEE, 0x4B, 0xBE,
  0x90, 0x47, 0x53, 0xBE, 0xD5, 0x3C, 0xB1, 0xBE, 0x7F, 0x1A,
  0x80, 0xBE, 0x19, 0xF4, 0x35, 0xBE, 0xC7, 0xF3, 0xD5, 0xBE,
  0x13, 0xDC, 0xEB, 0xBE, 0xA7, 0x49, 0xA7, 0xBE, 0xA6, 0x08,
  0x8D, 0xBE, 0x67, 0x2B, 0x80, 0xBE, 0xD5, 0x83, 0x3A, 0xBD,
  0x0D, 0xCB, 0x70, 0xBD, 0xF2, 0x3E, 0xD2, 0xBC, 0x82, 0x80,
  0xB7, 0x3D, 0x35, 0x3A, 0x75, 0x3D, 0x55, 0x45, 0xC1, 0xBD,
  0xF8, 0x1E, 0xEF, 0xBC, 0x50, 0x6E, 0x32, 0x3D, 0x6B, 0x9A,
  0x2C, 0x3D, 0x00, 0xB1, 0x58, 0x3C, 0x20, 0x3F, 0xC2, 0xBC,
  0x42, 0x3A, 0x46, 0xBF, 0x14, 0xEF, 0x87, 0x3C, 0x8C, 0x4C,
  0xDF, 0x3D, 0x92, 0x89, 0xD4, 0x3D, 0x49, 0x20, 0x33, 0x3F,
  0xB3, 0xBA, 0xDF, 0x3E, 0x72, 0x0C, 0x26, 0x3E, 0x8F, 0x8A,
  0xBD, 0xBD, 0x47, 0xB5, 0x3F, 0x3B, 0xD5, 0x27, 0xE5, 0xBD,
  0xC4, 0x83, 0xE2, 0xBD, 0xDF, 0x0C, 0x85, 0xBE, 0x90, 0x9A,
  0x89, 0xBE, 0xD0, 0xA8, 0xCA, 0xBE, 0xF3, 0x23, 0xE4, 0xBE,
  0xC6, 0x98, 0xBF, 0xBE, 0x52, 0xC9, 0xAD, 0xBE, 0xC1, 0x74,
  0x3D, 0xBE, 0x8F, 0xC0, 0xAD, 0xBD, 0x6A, 0x48, 0xFC, 0xBC,
  0x21, 0xA2, 0x1A, 0x3D, 0x83, 0x60, 0x0C, 0xBD, 0x0C, 0x18,
  0x4A, 0x3E, 0xD7, 0x40, 0xAE, 0x3D, 0x23, 0xAE, 0x7B, 0x3D,
  0x03, 0x46, 0x60, 0x3D, 0xAA, 0xA9, 0xD2, 0x3A, 0x8F, 0x4F,
  0x9D, 0xBD, 0x61, 0x10, 0x59, 0xBF, 0x80, 0x7B, 0x92, 0x3D,
  0x27, 0x3D, 0xA4, 0x3E, 0xBB, 0xB1, 0x28, 0x3D, 0x5C, 0x88,
  0x17, 0x3F, 0xBC, 0xE1, 0xCB, 0x3E, 0x86, 0x85, 0xA2, 0x3E,
  0xC7, 0xD1, 0x52, 0x3E, 0x6E, 0x39, 0x74, 0x3E, 0x71, 0x7D,
  0x46, 0x3E, 0xEA, 0x50, 0xDB, 0x3D, 0x7C, 0x41, 0x89, 0x3D,
  0xFA, 0xFF, 0x63, 0x3D, 0xC9, 0xD4, 0x7C, 0x3B, 0x75, 0xA9,
  0x21, 0x3D, 0x16, 0xCD, 0x16, 0xBE, 0x90, 0x86, 0x2B, 0xBC,
  0x19, 0xA6, 0xBF, 0xBD, 0xF8, 0x21, 0x4A, 0x3D, 0x84, 0xED,
  0xC4, 0xBC, 0x69, 0x9C, 0x97, 0x3D, 0x31, 0x40, 0x3A, 0x3D,
  0x3A, 0xAA, 0x80, 0x3D, 0x49, 0x0A, 0xC1, 0x3D, 0xD1, 0xCF,
  0x08, 0x3E, 0x3D, 0x8D, 0x35, 0x3E, 0x4A, 0x30, 0x02, 0x3E,
  0x58, 0xAF, 0x90, 0xBE, 0x6B, 0xB7, 0x0E, 0xBF, 0xBC, 0x60,
  0x6A, 0xBD, 0xDD, 0x53, 0xBD, 0x3E, 0xD3, 0x3A, 0x87, 0x3E,
  0xB1, 0xF7, 0x19, 0x3F, 0xC0, 0x04, 0xFC, 0x3E, 0x89, 0x8C,
  0x32, 0x3E, 0x3B, 0xFF, 0x0B, 0x3E, 0xC3, 0x63, 0x27, 0x3E,
  0xBF, 0xB6, 0x76, 0x3D, 0x6F, 0x71, 0x6C, 0x3D, 0x58, 0x33,
  0x14, 0x3E, 0xF8, 0xB7, 0x5E, 0x3E, 0x6C, 0x71, 0x84, 0x3E,
  0xEB, 0x24, 0x3C, 0x3E, 0x5A, 0x8A, 0xF3, 0x3D, 0xB6, 0x04,
  0x9F, 0x3D, 0x72, 0x91, 0xE6, 0x3D, 0x58, 0x2F, 0x97, 0x3B,
  0x76, 0x05, 0x37, 0x3D, 0x00, 0x4D, 0xA1, 0x3C, 0xEE, 0x10,
  0xA4, 0x3D, 0x53, 0x12, 0x72, 0x3D, 0x0B, 0x4A, 0x9F, 0xBD,
  0x0C, 0xDF, 0xBB, 0x3C, 0x49, 0x56, 0xC9, 0x3D, 0xC7, 0x67,
  0x01, 0x3E, 0x63, 0xD5, 0xBC, 0x3D, 0x64, 0x78, 0xE4, 0xBE,
  0x9D, 0x85, 0x66, 0xBD, 0xBA, 0x29, 0x77, 0x3E, 0x71, 0x8E,
  0x86, 0x3F, 0xFA, 0xAF, 0x2F, 0x3F, 0xD0, 0xA9, 0xB5, 0x3E,
  0xB2, 0x07, 0xEB, 0x3D, 0x56, 0xC4, 0x30, 0x3D, 0xD5, 0xB9,
  0x3F, 0x3D, 0x6F, 0xA3, 0x7A, 0x3D, 0x9B, 0xC5, 0x1C, 0x3D,
  0xBA, 0x2C, 0x09, 0x3E, 0x05, 0x06, 0xD0, 0x3D, 0x5F, 0x91,
  0x4C, 0x3E, 0x89, 0x5F, 0x21, 0x3E, 0x07, 0xBE, 0xFC, 0x3D,
  0x1C, 0x2C, 0xF9, 0x3D, 0x52, 0x02, 0xB3, 0x3D, 0xCA, 0xBC,
  0xA4, 0x3C, 0x2C, 0x4E, 0x56, 0x3D, 0xF6, 0xC8, 0x46, 0xBD,
  0x8E, 0xB9, 0xDB, 0x3C, 0x27, 0xD5, 0x81, 0x3D, 0x29, 0x15,
  0x30, 0x3C, 0x2C, 0x11, 0xA8, 0xBB, 0xB4, 0x1B, 0x01, 0xBD,
  0xF6, 0x8D, 0x13, 0xBE, 0x2B, 0xC0, 0x69, 0xBE, 0x35, 0x62,
  0xE8, 0xBE, 0x32, 0xF9, 0x6C, 0xBD, 0xF8, 0xD5, 0x92, 0xBD,
  0xD4, 0x91, 0x4E, 0x3F, 0x20, 0x84, 0xCB, 0x3E, 0x73, 0x5E,
  0xAD, 0xBD, 0xF2, 0xEF, 0x92, 0xBD, 0xA8, 0x0B, 0x86, 0x3C,
  0x99, 0x68, 0x07, 0xBB, 0xCA, 0x25, 0x04, 0x3E, 0x59, 0xEB,
  0x4E, 0x3E, 0xCA, 0x00, 0x0F, 0x3E, 0xE3, 0x2E, 0x55, 0x3E,
  0xB2, 0xF1, 0x4D, 0x3E, 0xFC, 0xCD, 0xAC, 0x3E, 0xD2, 0x96,
  0x87, 0x3E, 0x8B, 0xAA, 0x82, 0x3E, 0x22, 0x0B, 0x13, 0xBB,
  0xA4, 0x23, 0x7D, 0x3D, 0x60, 0x43, 0x58, 0x3D, 0xF7, 0x73,
  0x43, 0xBC, 0x1B, 0x79, 0x47, 0x3D, 0xC6, 0xF0, 0xAF, 0xBD,
  0x48, 0xCE, 0x2B, 0xBE, 0x1B, 0xF5, 0x01, 0xBE, 0xDB, 0xA8,
  0xAA, 0xBE, 0x6C, 0x84, 0x10, 0xBF, 0x1B, 0x32, 0x31, 0xBF,
  0x86, 0x76, 0x9C, 0xBE, 0x10, 0xFF, 0xA3, 0x3D, 0x7A, 0xA7,
  0x07, 0x3D, 0x7C, 0xB3, 0xE1, 0xBE, 0xA4, 0xB4, 0x7B, 0xBE,
  0xBD, 0xDB, 0x18, 0xBF, 0x11, 0x9D, 0x56, 0xBE, 0xA3, 0xFA,
  0x81, 0x3A, 0x5D, 0xA0, 0x94, 0xBC, 0xE8, 0xB1, 0x8D, 0x3D,
  0x1A, 0xB2, 0x19, 0x3E, 0x31, 0xE3, 0xCC, 0x3D, 0x85, 0xF0,
  0xF2, 0x3D, 0x69, 0xE4, 0x37, 0x3E, 0x49, 0xE5, 0x87, 0x3C,
  0x89, 0xDC, 0xF1, 0x3D, 0x82, 0x11, 0x34, 0x3E, 0x7D, 0x11,
  0x5F, 0x3E, 0x7D, 0x8B, 0x5D, 0x3E, 0xF1, 0x18, 0xED, 0x3D,
  0x8C, 0x64, 0xF6, 0x3D, 0x22, 0xDC, 0x09, 0x3E, 0x4D, 0xE8,
  0xA5, 0xBD, 0x8F, 0xF1, 0x30, 0xBE, 0x6D, 0x0C, 0x2C, 0xBE,
  0x8E, 0x3C, 0x14, 0xBF, 0xC5, 0x86, 0x2D, 0xBF, 0x8B, 0xB8,
  0x65, 0xBF, 0x5E, 0x12, 0x83, 0xBF, 0xCC, 0x14, 0xD4, 0x3C,
  0x5E, 0x19, 0x00, 0x3D, 0x91, 0x74, 0x59, 0xBE, 0x56, 0xC8,
  0xB7, 0xBD, 0x82, 0xC4, 0x04, 0xBF, 0x4F, 0xE9, 0x78, 0xBE,
  0x3A, 0xD7, 0x49, 0xBE, 0xD5, 0xC0, 0x0D, 0x3D, 0x0B, 0x2A,
  0x2A, 0x3E, 0xE4, 0xE1, 0x80, 0x3E, 0x00, 0x1D, 0x0E, 0x3E,
  0x8C, 0xB8, 0x63, 0x3D, 0xB5, 0xBE, 0x8C, 0x3E, 0xAC, 0x7E,
  0x3A, 0x3D, 0x6F, 0xAF, 0x27, 0x3E, 0x0C, 0xF5, 0x5B, 0x3E,
  0x78, 0xD6, 0x74, 0x3D, 0xAE, 0x3C, 0x06, 0x3E, 0xFE, 0xF8,
  0x8B, 0x3E, 0xA9, 0x6F, 0x6F, 0x3E, 0x7C, 0x74, 0x24, 0xBC,
  0x3C, 0x7F, 0xC3, 0x3C, 0xC5, 0x93, 0x8E, 0x3D, 0x1D, 0xDE,
  0x8E, 0x3D, 0xB0, 0x23, 0x8E, 0x3D, 0x13, 0xD8, 0xD0, 0x3C,
  0x00, 0xAC, 0x16, 0xBF, 0x69, 0x17, 0x26, 0xBF, 0x90, 0x96,
  0xA2, 0xBD, 0x2C, 0x6A, 0x5C, 0x3D, 0x7B, 0xA5, 0x8C, 0x3E,
  0x78, 0xB6, 0x87, 0xBE, 0x22, 0x1A, 0x5A, 0xBE, 0xAA, 0x6C,
  0x57, 0x3D, 0xEE, 0x49, 0x5E, 0xBD, 0x49, 0x3B, 0x8D, 0x3D,
  0x29, 0x7B, 0xA3, 0x3D, 0x72, 0x4D, 0xDB, 0x3E, 0xE5, 0x8B,
  0x5E, 0x3F, 0xD8, 0x15, 0x42, 0x3F, 0x18, 0xBE, 0x2A, 0x3F,
  0xFC, 0x7B, 0x16, 0x3F, 0xD4, 0xB0, 0x10, 0x3F, 0x1A, 0x5A,
  0xCA, 0x3E, 0x4C, 0x00, 0xA2, 0x3E, 0x8A, 0x20, 0x0A, 0x3F,
  0x1F, 0x79, 0xEF, 0x3E, 0x5D, 0xE8, 0xA3, 0xBC, 0xDE, 0xFB,
  0x1A, 0x3E, 0x7F, 0xA1, 0x08, 0x3F, 0xEA, 0xDB, 0x90, 0x3E,
  0xB0, 0x0B, 0xA4, 0x3E, 0xCC, 0x53, 0x52, 0xBD, 0xD7, 0x9A,
  0xD0, 0x3B, 0x00, 0xA3, 0x43, 0xBF, 0x7B, 0x1E, 0x1F, 0xBC,
  0x70, 0x16, 0xD6, 0x3B, 0x18, 0x04, 0x9B, 0xBD, 0x00, 0xD5,
  0x53, 0x3B, 0xDB, 0x8E, 0x9D, 0xBD, 0xAC, 0xE2, 0x47, 0x3D,
  0xC0, 0x3C, 0x75, 0xBC, 0x7E, 0x93, 0x9D, 0xBD, 0xB8, 0xB6,
  0x78, 0xBD, 0xE8, 0x07, 0x0A, 0xBC, 0x60, 0x78, 0x2E, 0xBC,
  0xE0, 0xEE, 0xB2, 0xBB, 0xCC, 0x20, 0x1D, 0x3D, 0x26, 0xD7,
  0xA3, 0x3D, 0x54, 0x14, 0x2C, 0x3D, 0x18, 0x53, 0xFF, 0xBC,
  0x58, 0x69, 0x99, 0xBC, 0xEE, 0x05, 0x00, 0x3D, 0x48, 0xA8,
  0x53, 0xBC, 0x89, 0xAC, 0x08, 0xBD, 0x2E, 0x03, 0x70, 0xBD,
  0x30, 0x04, 0xB4, 0xBB, 0x6A, 0x68, 0x6A, 0xBD, 0x89, 0x01,
  0x80, 0xBD, 0xF4, 0x94, 0x1B, 0x3D, 0xF4, 0x21, 0x04, 0xBD,
  0x49, 0x47, 0x82, 0xBD, 0x8C, 0xFE, 0x3F, 0xBD, 0x42, 0x78,
  0x98, 0x3D, 0x24, 0x15, 0xFD, 0x3C, 0x16, 0xFF, 0xFF, 0xFF,
  0x04, 0x00, 0x00, 0x00, 0x08, 0x00, 0x00, 0x00, 0xFF, 0xFF,
  0xFF, 0xFF, 0x10, 0x03, 0x00, 0x00, 0x2A, 0xFF, 0xFF, 0xFF,
  0x04, 0x00, 0x00, 0x00, 0x10, 0x00, 0x00, 0x00, 0xAA, 0xE8,
  0xDC, 0xBE, 0x6A, 0x60, 0x2C, 0x3E, 0x21, 0x82, 0x29, 0x3E,
  0x07, 0x17, 0xFF, 0xBE, 0x46, 0xFF, 0xFF, 0xFF, 0x04, 0x00,
  0x00, 0x00, 0x28, 0x00, 0x00, 0x00, 0x2B, 0x91, 0x07, 0x3F,
  0xA7, 0xC0, 0x22, 0x40, 0x3F, 0xEB, 0x3C, 0x3F, 0x38, 0xB0,
  0x1A, 0xC0, 0x40, 0xA8, 0x5E, 0x40, 0x5A, 0xEF, 0x6C, 0xBF,
  0xC0, 0x81, 0x25, 0xBD, 0xD5, 0xD6, 0x5D, 0x3F, 0x31, 0x91,
  0x40, 0xC0, 0xF7, 0xAF, 0x40, 0xBE, 0xE8, 0xFA, 0xFF, 0xFF,
  0xEC, 0xFA, 0xFF, 0xFF, 0x0F, 0x00, 0x00, 0x00, 0x4D, 0x4C,
  0x49, 0x52, 0x20, 0x43, 0x6F, 0x6E, 0x76, 0x65, 0x72, 0x74,
  0x65, 0x64, 0x2E, 0x00, 0x01, 0x00, 0x00, 0x00, 0x14, 0x00,
  0x00, 0x00, 0x00, 0x00, 0x0E, 0x00, 0x18, 0x00, 0x14, 0x00,
  0x10, 0x00, 0x0C, 0x00, 0x08, 0x00, 0x04, 0x00, 0x0E, 0x00,
  0x00, 0x00, 0x14, 0x00, 0x00, 0x00, 0x1C, 0x00, 0x00, 0x00,
  0x14, 0x01, 0x00, 0x00, 0x18, 0x01, 0x00, 0x00, 0x1C, 0x01,
  0x00, 0x00, 0x04, 0x00, 0x00, 0x00, 0x6D, 0x61, 0x69, 0x6E,
  0x00, 0x00, 0x00, 0x00, 0x04, 0x00, 0x00, 0x00, 0xD8, 0x00,
  0x00, 0x00, 0x88, 0x00, 0x00, 0x00, 0x40, 0x00, 0x00, 0x00,
  0x04, 0x00, 0x00, 0x00, 0x92, 0xFF, 0xFF, 0xFF, 0x1C, 0x00,
  0x00, 0x00, 0x00, 0x00, 0x00, 0x09, 0x1C, 0x00, 0x00, 0x00,
  0x20, 0x00, 0x00, 0x00, 0x02, 0x00, 0x00, 0x00, 0x00, 0x00,
  0x06, 0x00, 0x08, 0x00, 0x04, 0x00, 0x06, 0x00, 0x00, 0x00,
  0x00, 0x00, 0x80, 0x3F, 0x01, 0x00, 0x00, 0x00, 0x09, 0x00,
  0x00, 0x00, 0x01, 0x00, 0x00, 0x00, 0x08, 0x00, 0x00, 0x00,
  0xCA, 0xFF, 0xFF, 0xFF, 0x14, 0x00, 0x00, 0x00, 0x00, 0x00,
  0x00, 0x08, 0x10, 0x00, 0x00, 0x00, 0x14, 0x00, 0x00, 0x00,
  0x01, 0x00, 0x00, 0x00, 0xA4, 0xFB, 0xFF, 0xFF, 0x01, 0x00,
  0x00, 0x00, 0x08, 0x00, 0x00, 0x00, 0x03, 0x00, 0x00, 0x00,
  0x07, 0x00, 0x00, 0x00, 0x05, 0x00, 0x00, 0x00, 0x01, 0x00,
  0x00, 0x00, 0x00, 0x00, 0x0E, 0x00, 0x1A, 0x00, 0x14, 0x00,
  0x10, 0x00, 0x0C, 0x00, 0x0B, 0x00, 0x04, 0x00, 0x0E, 0x00,
  0x00, 0x00, 0x1C, 0x00, 0x00, 0x00, 0x00, 0x00, 0x00, 0x08,
  0x1C, 0x00, 0x00, 0x00, 0x20, 0x00, 0x00, 0x00, 0x01, 0x00,
  0x00, 0x00, 0x00, 0x00, 0x06, 0x00, 0x08, 0x00, 0x07, 0x00,
  0x06, 0x00, 0x00, 0x00, 0x00, 0x00, 0x00, 0x01, 0x01, 0x00,
  0x00, 0x00, 0x07, 0x00, 0x00, 0x00, 0x03, 0x00, 0x00, 0x00,
  0x06, 0x00, 0x00, 0x00, 0x04, 0x00, 0x00, 0x00, 0x02, 0x00,
  0x00, 0x00, 0x00, 0x00, 0x0A, 0x00, 0x0C, 0x00, 0x00, 0x00,
  0x08, 0x00, 0x04, 0x00, 0x0A, 0x00, 0x00, 0x00, 0x08, 0x00,
  0x00, 0x00, 0x0C, 0x00, 0x00, 0x00, 0x01, 0x00, 0x00, 0x00,
  0x06, 0x00, 0x00, 0x00, 0x02, 0x00, 0x00, 0x00, 0x00, 0x00,
  0x00, 0x00, 0x03, 0x00, 0x00, 0x00, 0x01, 0x00, 0x00, 0x00,
  0x09, 0x00, 0x00, 0x00, 0x01, 0x00, 0x00, 0x00, 0x00, 0x00,
  0x00, 0x00, 0x0A, 0x00, 0x00, 0x00, 0x80, 0x03, 0x00, 0x00,
  0x14, 0x03, 0x00, 0x00, 0xA8, 0x02, 0x00, 0x00, 0x5C, 0x02,
  0x00, 0x00, 0xFC, 0x01, 0x00, 0x00, 0xB4, 0x01, 0x00, 0x00,
  0x58, 0x01, 0x00, 0x00, 0xD0, 0x00, 0x00, 0x00, 0x60, 0x00,
  0x00, 0x00, 0x04, 0x00, 0x00, 0x00, 0xBE, 0xFC, 0xFF, 0xFF,
  0x00, 0x00, 0x00, 0x01, 0x14, 0x00, 0x00, 0x00, 0x1C, 0x00,
  0x00, 0x00, 0x1C, 0x00, 0x00, 0x00, 0x0A, 0x00, 0x00, 0x00,
  0x34, 0x00, 0x00, 0x00, 0x02, 0x00, 0x00, 0x00, 0xFF, 0xFF,
  0xFF, 0xFF, 0x0A, 0x00, 0x00, 0x00, 0xA0, 0xFC, 0xFF, 0xFF,
  0x19, 0x00, 0x00, 0x00, 0x53, 0x74, 0x61, 0x74, 0x65, 0x66,
  0x75, 0x6C, 0x50, 0x61, 0x72, 0x74, 0x69, 0x74, 0x69, 0x6F,
  0x6E, 0x65, 0x64, 0x43, 0x61, 0x6C, 0x6C, 0x3A, 0x30, 0x00,
  0x00, 0x00, 0x02, 0x00, 0x00, 0x00, 0x01, 0x00, 0x00, 0x00,
  0x0A, 0x00, 0x00, 0x00, 0x16, 0xFD, 0xFF, 0xFF, 0x00, 0x00,
  0x00, 0x01, 0x14, 0x00, 0x00, 0x00, 0x1C, 0x00, 0x00, 0x00,
  0x1C, 0x00, 0x00, 0x00, 0x09, 0x00, 0x00, 0x00, 0x48, 0x00,
  0x00, 0x00, 0x02, 0x00, 0x00, 0x00, 0xFF, 0xFF, 0xFF, 0xFF,
  0x0A, 0x00, 0x00, 0x00, 0xF8, 0xFC, 0xFF, 0xFF, 0x2C, 0x00,
  0x00, 0x00, 0x73, 0x65, 0x71, 0x75, 0x65, 0x6E, 0x74, 0x69,
  0x61, 0x6C, 0x2F, 0x66, 0x63, 0x33, 0x2F, 0x4D, 0x61, 0x74,
  0x4D, 0x75, 0x6C, 0x3B, 0x73, 0x65, 0x71, 0x75, 0x65, 0x6E,
  0x74, 0x69, 0x61, 0x6C, 0x2F, 0x66, 0x63, 0x33, 0x2F, 0x42,
  0x69, 0x61, 0x73, 0x41, 0x64, 0x64, 0x00, 0x00, 0x00, 0x00,
  0x02, 0x00, 0x00, 0x00, 0x01, 0x00, 0x00, 0x00, 0x0A, 0x00,
  0x00, 0x00, 0x82, 0xFD, 0xFF, 0xFF, 0x00, 0x00, 0x00, 0x01,
  0x14, 0x00, 0x00, 0x00, 0x1C, 0x00, 0x00, 0x00, 0x1C, 0x00,
  0x00, 0x00, 0x08, 0x00, 0x00, 0x00, 0x60, 0x00, 0x00, 0x00,
  0x02, 0x00, 0x00, 0x00, 0xFF, 0xFF, 0xFF, 0xFF, 0x04, 0x00,
  0x00, 0x00, 0x64, 0xFD, 0xFF, 0xFF, 0x46, 0x00, 0x00, 0x00,
  0x73, 0x65, 0x71, 0x75, 0x65, 0x6E, 0x74, 0x69, 0x61, 0x6C,
  0x2F, 0x64, 0x65, 0x6E, 0x73, 0x65, 0x2F, 0x4D, 0x61, 0x74,
  0x4D, 0x75, 0x6C, 0x3B, 0x73, 0x65, 0x71, 0x75, 0x65, 0x6E,
  0x74, 0x69, 0x61, 0x6C, 0x2F, 0x64, 0x65, 0x6E, 0x73, 0x65,
  0x2F, 0x52, 0x65, 0x6C, 0x75, 0x3B, 0x73, 0x65, 0x71, 0x75,
  0x65, 0x6E, 0x74, 0x69, 0x61, 0x6C, 0x2F, 0x64, 0x65, 0x6E,
  0x73, 0x65, 0x2F, 0x42, 0x69, 0x61, 0x73, 0x41, 0x64, 0x64,
  0x00, 0x00, 0x02, 0x00, 0x00, 0x00, 0x01, 0x00, 0x00, 0x00,
  0x04, 0x00, 0x00, 0x00, 0x06, 0xFE, 0xFF, 0xFF, 0x00, 0x00,
  0x00, 0x01, 0x14, 0x00, 0x00, 0x00, 0x1C, 0x00, 0x00, 0x00,
  0x1C, 0x00, 0x00, 0x00, 0x07, 0x00, 0x00, 0x00, 0x34, 0x00,
  0x00, 0x00, 0x02, 0x00, 0x00, 0x00, 0xFF, 0xFF, 0xFF, 0xFF,
  0x10, 0x03, 0x00, 0x00, 0xE8, 0xFD, 0xFF, 0xFF, 0x1A, 0x00,
  0x00, 0x00, 0x73, 0x65, 0x71, 0x75, 0x65, 0x6E, 0x74, 0x69,
  0x61, 0x6C, 0x2F, 0x66, 0x6C, 0x61, 0x74, 0x74, 0x65, 0x6E,
  0x2F, 0x52, 0x65, 0x73, 0x68, 0x61, 0x70, 0x65, 0x00, 0x00,
  0x02, 0x00, 0x00, 0x00, 0x01, 0x00, 0x00, 0x00, 0x10, 0x03,
  0x00, 0x00, 0xC6, 0xFE, 0xFF, 0xFF, 0x00, 0x00, 0x00, 0x01,
  0x10, 0x00, 0x00, 0x00, 0x10, 0x00, 0x00, 0x00, 0x06, 0x00,
  0x00, 0x00, 0x24, 0x00, 0x00, 0x00, 0x30, 0xFE, 0xFF, 0xFF,
  0x15, 0x00, 0x00, 0x00, 0x73, 0x65, 0x71, 0x75, 0x65, 0x6E,
  0x74, 0x69, 0x61, 0x6C, 0x2F, 0x66, 0x63, 0x33, 0x2F, 0x4D,
  0x61, 0x74, 0x4D, 0x75, 0x6C, 0x00, 0x00, 0x00, 0x02, 0x00,
  0x00, 0x00, 0x0A, 0x00, 0x00, 0x00, 0x04, 0x00, 0x00, 0x00,
  0x0A, 0xFF, 0xFF, 0xFF, 0x00, 0x00, 0x00, 0x01, 0x10, 0x00,
  0x00, 0x00, 0x10, 0x00, 0x00, 0x00, 0x05, 0x00, 0x00, 0x00,
  0x24, 0x00, 0x00, 0x00, 0x74, 0xFE, 0xFF, 0xFF, 0x17, 0x00,
  0x00, 0x00, 0x73, 0x65, 0x71, 0x75, 0x65, 0x6E, 0x74, 0x69,
  0x61, 0x6C, 0x2F, 0x64, 0x65, 0x6E, 0x73, 0x65, 0x2F, 0x4D,
  0x61, 0x74, 0x4D, 0x75, 0x6C, 0x00, 0x02, 0x00, 0x00, 0x00,
  0x04, 0x00, 0x00, 0x00, 0x10, 0x03, 0x00, 0x00, 0x00, 0x00,
  0x16, 0x00, 0x1C, 0x00, 0x18, 0x00, 0x17, 0x00, 0x10, 0x00,
  0x0C, 0x00, 0x08, 0x00, 0x00, 0x00, 0x00, 0x00, 0x00, 0x00,
  0x07, 0x00, 0x16, 0x00, 0x00, 0x00, 0x00, 0x00, 0x00, 0x01,
  0x14, 0x00, 0x00, 0x00, 0x14, 0x00, 0x00, 0x00, 0x04, 0x00,
  0x00, 0x00, 0x00, 0x00, 0x00, 0x02, 0x28, 0x00, 0x00, 0x00,
  0xD4, 0xFE, 0xFF, 0xFF, 0x18, 0x00, 0x00, 0x00, 0x73, 0x65,
  0x71, 0x75, 0x65, 0x6E, 0x74, 0x69, 0x61, 0x6C, 0x2F, 0x66,
  0x6C, 0x61, 0x74, 0x74, 0x65, 0x6E, 0x2F, 0x43, 0x6F, 0x6E,
  0x73, 0x74, 0x00, 0x00, 0x00, 0x00, 0x01, 0x00, 0x00, 0x00,
  0x02, 0x00, 0x00, 0x00, 0xAE, 0xFF, 0xFF, 0xFF, 0x00, 0x00,
  0x00, 0x01, 0x10, 0x00, 0x00, 0x00, 0x10, 0x00, 0x00, 0x00,
  0x03, 0x00, 0x00, 0x00, 0x34, 0x00, 0x00, 0x00, 0x18, 0xFF,
  0xFF, 0xFF, 0x27, 0x00, 0x00, 0x00, 0x73, 0x65, 0x71, 0x75,
  0x65, 0x6E, 0x74, 0x69, 0x61, 0x6C, 0x2F, 0x64, 0x65, 0x6E,
  0x73, 0x65, 0x2F, 0x42, 0x69, 0x61, 0x73, 0x41, 0x64, 0x64,
  0x2F, 0x52, 0x65, 0x61, 0x64, 0x56, 0x61, 0x72, 0x69, 0x61,
  0x62, 0x6C, 0x65, 0x4F, 0x70, 0x00, 0x01, 0x00, 0x00, 0x00,
  0x04, 0x00, 0x00, 0x00, 0x00, 0x00, 0x16, 0x00, 0x18, 0x00,
  0x14, 0x00, 0x00, 0x00, 0x10, 0x00, 0x0C, 0x00, 0x08, 0x00,
  0x00, 0x00, 0x00, 0x00, 0x00, 0x00, 0x07, 0x00, 0x16, 0x00,
  0x00, 0x00, 0x00, 0x00, 0x00, 0x01, 0x10, 0x00, 0x00, 0x00,
  0x10, 0x00, 0x00, 0x00, 0x02, 0x00, 0x00, 0x00, 0x34, 0x00,
  0x00, 0x00, 0x80, 0xFF, 0xFF, 0xFF, 0x25, 0x00, 0x00, 0x00,
  0x73, 0x65, 0x71, 0x75, 0x65, 0x6E, 0x74, 0x69, 0x61, 0x6C,
  0x2F, 0x66, 0x63, 0x33, 0x2F, 0x42, 0x69, 0x61, 0x73, 0x41,
  0x64, 0x64, 0x2F, 0x52, 0x65, 0x61, 0x64, 0x56, 0x61, 0x72,
  0x69, 0x61, 0x62, 0x6C, 0x65, 0x4F, 0x70, 0x00, 0x00, 0x00,
  0x01, 0x00, 0x00, 0x00, 0x0A, 0x00, 0x00, 0x00, 0x00, 0x00,
  0x16, 0x00, 0x1C, 0x00, 0x18, 0x00, 0x00, 0x00, 0x14, 0x00,
  0x10, 0x00, 0x0C, 0x00, 0x00, 0x00, 0x00, 0x00, 0x08, 0x00,
  0x07, 0x00, 0x16, 0x00, 0x00, 0x00, 0x00, 0x00, 0x00, 0x01,
  0x14, 0x00, 0x00, 0x00, 0x28, 0x00, 0x00, 0x00, 0x28, 0x00,
  0x00, 0x00, 0x01, 0x00, 0x00, 0x00, 0x44, 0x00, 0x00, 0x00,
  0x04, 0x00, 0x00, 0x00, 0xFF, 0xFF, 0xFF, 0xFF, 0x1C, 0x00,
  0x00, 0x00, 0x1C, 0x00, 0x00, 0x00, 0x01, 0x00, 0x00, 0x00,
  0x04, 0x00, 0x04, 0x00, 0x04, 0x00, 0x00, 0x00, 0x1F, 0x00,
  0x00, 0x00, 0x73, 0x65, 0x72, 0x76, 0x69, 0x6E, 0x67, 0x5F,
  0x64, 0x65, 0x66, 0x61, 0x75, 0x6C, 0x74, 0x5F, 0x66, 0x6C,
  0x61, 0x74, 0x74, 0x65, 0x6E, 0x5F, 0x69, 0x6E, 0x70, 0x75,
  0x74, 0x3A, 0x30, 0x00, 0x04, 0x00, 0x00, 0x00, 0x01, 0x00,
  0x00, 0x00, 0x1C, 0x00, 0x00, 0x00, 0x1C, 0x00, 0x00, 0x00,
  0x01, 0x00, 0x00, 0x00, 0x03, 0x00, 0x00, 0x00, 0x30, 0x00,
  0x00, 0x00, 0x14, 0x00, 0x00, 0x00, 0x04, 0x00, 0x00, 0x00,
  0xE8, 0xFF, 0xFF, 0xFF, 0x19, 0x00, 0x00, 0x00, 0x00, 0x00,
  0x00, 0x19, 0xF4, 0xFF, 0xFF, 0xFF, 0x09, 0x00, 0x00, 0x00,
  0x00, 0x00, 0x00, 0x09, 0x0C, 0x00, 0x0C, 0x00, 0x0B, 0x00,
  0x00, 0x00, 0x00, 0x00, 0x04, 0x00, 0x0C, 0x00, 0x00, 0x00,
  0x16, 0x00, 0x00, 0x00, 0x00, 0x00, 0x00, 0x16
};
unsigned int mnist_tflite_len2 = 14728;